/*
 * Copyright (c) 2024 EdgeImpulse Inc.
 *
 * Generated by Edge Impulse and licensed under the applicable Edge Impulse
 * Terms of Service. Community and Professional Terms of Service
 * (https://docs.edgeimpulse.com/page/terms-of-service) or Enterprise Terms of
 * Service (https://docs.edgeimpulse.com/page/enterprise-terms-of-service),
 * according to your product plan subscription (the “License”).
 *
 * This software, documentation and other associated files (collectively referred
 * to as the “Software”) is a single SDK variation generated by the Edge Impulse
 * platform and requires an active paid Edge Impulse subscription to use this
 * Software for any purpose.
 *
 * You may NOT use this Software unless you have an active Edge Impulse subscription
 * that meets the eligibility requirements for the applicable License, subject to
 * your full and continued compliance with the terms and conditions of the License,
 * including without limitation any usage restrictions under the applicable License.
 *
 * If you do not have an active Edge Impulse product plan subscription, or if use
 * of this Software exceeds the usage limitations of your Edge Impulse product plan
 * subscription, you are not permitted to use this Software and must immediately
 * delete and erase all copies of this Software within your control or possession.
 * Edge Impulse reserves all rights and remedies available to enforce its rights.
 *
 * Unless required by applicable law or agreed to in writing, the Software is
 * distributed on an "AS IS" BASIS, WITHOUT WARRANTIES OR CONDITIONS OF ANY KIND,
 * either express or implied. See the License for the specific language governing
 * permissions, disclaimers and limitations under the License.
 */

#ifndef _EI_CLASSIFIER_TFLITE_LEARN_5_H_
#define _EI_CLASSIFIER_TFLITE_LEARN_5_H_

#define EI_CLASSIFIER_TFLITE_LEARN_5_ARENA_SIZE     15360
const size_t tflite_learn_5_arena_size = 15360;

#if defined __GNUC__
#define ALIGN(X) __attribute__((aligned(X)))
#elif defined _MSC_VER
#define ALIGN(X) __declspec(align(X))
#elif defined __TASKING__
#define ALIGN(X) __align(X)
#else
#define ALIGN(X)
#endif

#if defined(EI_MODEL_SECTION) && (defined(__GNUC__) || defined(__clang__))
#define STRINGIZE(x) #x
#define STRINGIZE_VALUE_OF(x) STRINGIZE(x)
#define MODEL_SECTION(X) __attribute__((section(STRINGIZE_VALUE_OF(X))))
#else
#define MODEL_SECTION(X)
#endif

MODEL_SECTION(EI_MODEL_SECTION) ALIGN(16) const unsigned char tflite_learn_5[] = {
  0x1c, 0x00, 0x00, 0x00, 0x54, 0x46, 0x4c, 0x33, 0x00, 0x00, 0x12, 0x00,
  0x1c, 0x00, 0x18, 0x00, 0x14, 0x00, 0x10, 0x00, 0x0c, 0x00, 0x08, 0x00,
  0x00, 0x00, 0x04, 0x00, 0x12, 0x00, 0x00, 0x00, 0x18, 0x00, 0x00, 0x00,
  0xc0, 0x00, 0x00, 0x00, 0xec, 0x25, 0x00, 0x00, 0x4c, 0x23, 0x00, 0x00,
  0x00, 0x26, 0x00, 0x00, 0x03, 0x00, 0x00, 0x00, 0x04, 0x00, 0x00, 0x00,
  0x84, 0x00, 0x00, 0x00, 0x54, 0x00, 0x00, 0x00, 0x30, 0x00, 0x00, 0x00,
  0x04, 0x00, 0x00, 0x00, 0x94, 0xff, 0xff, 0xff, 0x06, 0x00, 0x00, 0x00,
  0x04, 0x00, 0x00, 0x00, 0x17, 0x00, 0x00, 0x00, 0x4f, 0x66, 0x66, 0x6c,
  0x69, 0x6e, 0x65, 0x4d, 0x65, 0x6d, 0x6f, 0x72, 0x79, 0x41, 0x6c, 0x6c,
  0x6f, 0x63, 0x61, 0x74, 0x69, 0x6f, 0x6e, 0x00, 0xbc, 0xff, 0xff, 0xff,
  0x05, 0x00, 0x00, 0x00, 0x04, 0x00, 0x00, 0x00, 0x0c, 0x00, 0x00, 0x00,
  0x76, 0x65, 0x6c, 0x61, 0x5f, 0x76, 0x65, 0x72, 0x73, 0x69, 0x6f, 0x6e,
  0x00, 0x00, 0x00, 0x00, 0xdc, 0xff, 0xff, 0xff, 0x04, 0x00, 0x00, 0x00,
  0x04, 0x00, 0x00, 0x00, 0x13, 0x00, 0x00, 0x00, 0x43, 0x4f, 0x4e, 0x56,
  0x45, 0x52, 0x53, 0x49, 0x4f, 0x4e, 0x5f, 0x4d, 0x45, 0x54, 0x41, 0x44,
  0x41, 0x54, 0x41, 0x00, 0x08, 0x00, 0x0c, 0x00, 0x08, 0x00, 0x04, 0x00,
  0x08, 0x00, 0x00, 0x00, 0x03, 0x00, 0x00, 0x00, 0x04, 0x00, 0x00, 0x00,
  0x13, 0x00, 0x00, 0x00, 0x6d, 0x69, 0x6e, 0x5f, 0x72, 0x75, 0x6e, 0x74,
  0x69, 0x6d, 0x65, 0x5f, 0x76, 0x65, 0x72, 0x73, 0x69, 0x6f, 0x6e, 0x00,
  0x07, 0x00, 0x00, 0x00, 0x8c, 0x22, 0x00, 0x00, 0x98, 0x18, 0x00, 0x00,
  0xf4, 0x00, 0x00, 0x00, 0xd0, 0x00, 0x00, 0x00, 0x5c, 0x00, 0x00, 0x00,
  0x38, 0x00, 0x00, 0x00, 0x04, 0x00, 0x00, 0x00, 0x86, 0xe7, 0xff, 0xff,
  0x04, 0x00, 0x00, 0x00, 0x24, 0x00, 0x00, 0x00, 0x00, 0x00, 0x00, 0x00,
  0x01, 0x00, 0x00, 0x00, 0x06, 0x00, 0x00, 0x00, 0x10, 0x00, 0x00, 0x00,
  0xff, 0xff, 0xff, 0xff, 0xff, 0xff, 0xff, 0xff, 0x00, 0x00, 0x00, 0x00,
  0x00, 0x00, 0x00, 0x00, 0x00, 0x27, 0x00, 0x00, 0xb6, 0xe7, 0xff, 0xff,
  0x04, 0x00, 0x00, 0x00, 0x06, 0x00, 0x00, 0x00, 0x33, 0x2e, 0x31, 0x32,
  0x2e, 0x30, 0x00, 0x00, 0x00, 0x00, 0x00, 0x00, 0x00, 0x00, 0x00, 0x00,
  0x00, 0x00, 0x00, 0x00, 0xd6, 0xe7, 0xff, 0xff, 0x04, 0x00, 0x00, 0x00,
  0x58, 0x00, 0x00, 0x00, 0x0c, 0x00, 0x00, 0x00, 0x08, 0x00, 0x0e, 0x00,
  0x08, 0x00, 0x04, 0x00, 0x08, 0x00, 0x00, 0x00, 0x10, 0x00, 0x00, 0x00,
  0x28, 0x00, 0x00, 0x00, 0x00, 0x00, 0x06, 0x00, 0x08, 0x00, 0x04, 0x00,
  0x06, 0x00, 0x00, 0x00, 0x04, 0x00, 0x00, 0x00, 0x01, 0x00, 0x00, 0x00,
  0xeb, 0x03, 0x00, 0x00, 0x00, 0x00, 0x0a, 0x00, 0x10, 0x00, 0x0c, 0x00,
  0x08, 0x00, 0x04, 0x00, 0x0a, 0x00, 0x00, 0x00, 0x03, 0x00, 0x00, 0x00,
  0x02, 0x00, 0x00, 0x00, 0x04, 0x00, 0x00, 0x00, 0x06, 0x00, 0x00, 0x00,
  0x32, 0x2e, 0x31, 0x31, 0x2e, 0x31, 0x00, 0x00, 0x00, 0x00, 0x00, 0x00,
  0x00, 0x00, 0x00, 0x00, 0x00, 0x00, 0x00, 0x00, 0x46, 0xe8, 0xff, 0xff,
  0x04, 0x00, 0x00, 0x00, 0x10, 0x00, 0x00, 0x00, 0x31, 0x2e, 0x31, 0x34,
  0x2e, 0x30, 0x00, 0x00, 0x00, 0x00, 0x00, 0x00, 0x00, 0x00, 0x00, 0x00,
  0x00, 0x00, 0x00, 0x00, 0x66, 0xe8, 0xff, 0xff, 0x04, 0x00, 0x00, 0x00,
  0x80, 0x17, 0x00, 0x00, 0x00, 0x00, 0x00, 0x00, 0x00, 0x00, 0x00, 0x00,
  0x00, 0x00, 0x00, 0x00, 0x00, 0x00, 0x00, 0x00, 0x00, 0x00, 0x00, 0x00,
  0x00, 0x00, 0x00, 0x00, 0x00, 0x00, 0x00, 0x00, 0x00, 0x00, 0x00, 0x00,
  0x00, 0x00, 0x00, 0x00, 0x00, 0x00, 0x00, 0x00, 0x00, 0x00, 0x00, 0x00,
  0x00, 0x00, 0x00, 0x00, 0x00, 0x00, 0x00, 0x00, 0x00, 0x00, 0x00, 0x00,
  0x00, 0x00, 0x00, 0x00, 0x00, 0x00, 0x00, 0x00, 0x00, 0x00, 0x00, 0x00,
  0x00, 0x00, 0x00, 0x00, 0x00, 0x00, 0x00, 0x00, 0x00, 0x00, 0x00, 0x00,
  0x00, 0x00, 0x00, 0x00, 0x00, 0x00, 0x00, 0x00, 0x00, 0x00, 0x00, 0x00,
  0x00, 0x00, 0x00, 0x00, 0x00, 0x00, 0x00, 0x00, 0x00, 0x00, 0x00, 0x00,
  0x00, 0x00, 0x00, 0x00, 0x00, 0x00, 0x00, 0x00, 0x00, 0x00, 0x00, 0x00,
  0x00, 0x00, 0x00, 0x00, 0x00, 0x00, 0x00, 0x00, 0x00, 0x00, 0x00, 0x00,
  0x00, 0x00, 0x00, 0x00, 0x00, 0x00, 0x00, 0x00, 0x00, 0x00, 0x00, 0x00,
  0x00, 0x00, 0x00, 0x00, 0x00, 0x00, 0x00, 0x00, 0x00, 0x00, 0x00, 0x00,
  0x00, 0x00, 0x00, 0x00, 0x00, 0x00, 0x00, 0x00, 0x00, 0x00, 0x00, 0x00,
  0x00, 0x00, 0x00, 0x00, 0x00, 0x00, 0x00, 0x00, 0x00, 0x00, 0x00, 0x00,
  0x00, 0x00, 0x00, 0x00, 0x00, 0x00, 0x00, 0x00, 0x00, 0x00, 0x00, 0x00,
  0x00, 0x00, 0x00, 0x00, 0x00, 0x00, 0x00, 0x00, 0x00, 0x00, 0x00, 0x00,
  0x00, 0x00, 0x00, 0x00, 0x00, 0x00, 0x00, 0x00, 0x00, 0x00, 0x00, 0x00,
  0x00, 0x00, 0x00, 0x00, 0x00, 0x00, 0x00, 0x00, 0x00, 0x00, 0x00, 0x00,
  0x00, 0x00, 0x00, 0x00, 0x00, 0x00, 0x00, 0x00, 0x00, 0x00, 0x00, 0x00,
  0x00, 0x00, 0x00, 0x00, 0x00, 0x00, 0x00, 0x00, 0x00, 0x00, 0x00, 0x00,
  0x00, 0x00, 0x00, 0x00, 0x00, 0x00, 0x00, 0x00, 0x00, 0x00, 0x00, 0x00,
  0x00, 0x00, 0x00, 0x00, 0x00, 0x00, 0x00, 0x00, 0x00, 0x00, 0x00, 0x00,
  0x00, 0x00, 0x00, 0x00, 0x00, 0x00, 0x00, 0x00, 0x00, 0x00, 0x00, 0x00,
  0x00, 0x00, 0x00, 0x00, 0x00, 0x00, 0x00, 0x00, 0x00, 0x00, 0x00, 0x00,
  0x00, 0x00, 0x00, 0x00, 0x00, 0x00, 0x00, 0x00, 0x00, 0x00, 0x00, 0x00,
  0x00, 0x00, 0x00, 0x00, 0x00, 0x00, 0x00, 0x00, 0x00, 0x00, 0x00, 0x00,
  0x00, 0x00, 0x00, 0x00, 0x00, 0x00, 0x00, 0x00, 0x00, 0x00, 0x00, 0x00,
  0x00, 0x00, 0x00, 0x00, 0x00, 0x00, 0x00, 0x00, 0x00, 0x00, 0x00, 0x00,
  0x00, 0x00, 0x00, 0x00, 0x00, 0x00, 0x00, 0x00, 0x00, 0x00, 0x00, 0x00,
  0x00, 0x00, 0x00, 0x00, 0x00, 0x00, 0x00, 0x00, 0x00, 0x00, 0x00, 0x00,
  0x00, 0x00, 0x00, 0x00, 0x00, 0x00, 0x00, 0x00, 0x00, 0x00, 0x00, 0x00,
  0x00, 0x00, 0x00, 0x00, 0x00, 0x00, 0x00, 0x00, 0x00, 0x00, 0x00, 0x00,
  0x00, 0x00, 0x00, 0x00, 0x00, 0x00, 0x00, 0x00, 0x00, 0x00, 0x00, 0x00,
  0x00, 0x00, 0x00, 0x00, 0x00, 0x00, 0x00, 0x00, 0x00, 0x00, 0x00, 0x00,
  0x00, 0x00, 0x00, 0x00, 0x00, 0x00, 0x00, 0x00, 0x00, 0x00, 0x00, 0x00,
  0x00, 0x00, 0x00, 0x00, 0x00, 0x00, 0x00, 0x00, 0x00, 0x00, 0x00, 0x00,
  0x00, 0x00, 0x00, 0x00, 0x00, 0x00, 0x00, 0x00, 0x00, 0x00, 0x00, 0x00,
  0x00, 0x00, 0x00, 0x00, 0x00, 0x00, 0x00, 0x00, 0x00, 0x00, 0x00, 0x00,
  0x01, 0x00, 0x00, 0x00, 0x01, 0x00, 0x00, 0x00, 0x01, 0x00, 0x00, 0x00,
  0x01, 0x00, 0x00, 0x00, 0x01, 0x00, 0x00, 0x00, 0x01, 0x00, 0x00, 0x00,
  0x01, 0x00, 0x00, 0x00, 0x01, 0x00, 0x00, 0x00, 0x01, 0x00, 0x00, 0x00,
  0x01, 0x00, 0x00, 0x00, 0x02, 0x00, 0x00, 0x00, 0x02, 0x00, 0x00, 0x00,
  0x02, 0x00, 0x00, 0x00, 0x02, 0x00, 0x00, 0x00, 0x02, 0x00, 0x00, 0x00,
  0x03, 0x00, 0x00, 0x00, 0x03, 0x00, 0x00, 0x00, 0x03, 0x00, 0x00, 0x00,
  0x04, 0x00, 0x00, 0x00, 0x04, 0x00, 0x00, 0x00, 0x04, 0x00, 0x00, 0x00,
  0x05, 0x00, 0x00, 0x00, 0x05, 0x00, 0x00, 0x00, 0x06, 0x00, 0x00, 0x00,
  0x07, 0x00, 0x00, 0x00, 0x07, 0x00, 0x00, 0x00, 0x08, 0x00, 0x00, 0x00,
  0x09, 0x00, 0x00, 0x00, 0x0a, 0x00, 0x00, 0x00, 0x0b, 0x00, 0x00, 0x00,
  0x0c, 0x00, 0x00, 0x00, 0x0e, 0x00, 0x00, 0x00, 0x0f, 0x00, 0x00, 0x00,
  0x11, 0x00, 0x00, 0x00, 0x13, 0x00, 0x00, 0x00, 0x15, 0x00, 0x00, 0x00,
  0x17, 0x00, 0x00, 0x00, 0x1a, 0x00, 0x00, 0x00, 0x1d, 0x00, 0x00, 0x00,
  0x20, 0x00, 0x00, 0x00, 0x23, 0x00, 0x00, 0x00, 0x27, 0x00, 0x00, 0x00,
  0x2c, 0x00, 0x00, 0x00, 0x30, 0x00, 0x00, 0x00, 0x36, 0x00, 0x00, 0x00,
  0x3c, 0x00, 0x00, 0x00, 0x42, 0x00, 0x00, 0x00, 0x4a, 0x00, 0x00, 0x00,
  0x52, 0x00, 0x00, 0x00, 0x5b, 0x00, 0x00, 0x00, 0x65, 0x00, 0x00, 0x00,
  0x70, 0x00, 0x00, 0x00, 0x7c, 0x00, 0x00, 0x00, 0x8a, 0x00, 0x00, 0x00,
  0x99, 0x00, 0x00, 0x00, 0xaa, 0x00, 0x00, 0x00, 0xbd, 0x00, 0x00, 0x00,
  0xd2, 0x00, 0x00, 0x00, 0xe9, 0x00, 0x00, 0x00, 0x02, 0x01, 0x00, 0x00,
  0x1f, 0x01, 0x00, 0x00, 0x3f, 0x01, 0x00, 0x00, 0x62, 0x01, 0x00, 0x00,
  0x89, 0x01, 0x00, 0x00, 0xb4, 0x01, 0x00, 0x00, 0xe4, 0x01, 0x00, 0x00,
  0x1a, 0x02, 0x00, 0x00, 0x55, 0x02, 0x00, 0x00, 0x98, 0x02, 0x00, 0x00,
  0xe1, 0x02, 0x00, 0x00, 0x32, 0x03, 0x00, 0x00, 0x8d, 0x03, 0x00, 0x00,
  0xf1, 0x03, 0x00, 0x00, 0x61, 0x04, 0x00, 0x00, 0xdd, 0x04, 0x00, 0x00,
  0x66, 0x05, 0x00, 0x00, 0xff, 0x05, 0x00, 0x00, 0xa8, 0x06, 0x00, 0x00,
  0x65, 0x07, 0x00, 0x00, 0x36, 0x08, 0x00, 0x00, 0x1e, 0x09, 0x00, 0x00,
  0x20, 0x0a, 0x00, 0x00, 0x3f, 0x0b, 0x00, 0x00, 0x7d, 0x0c, 0x00, 0x00,
  0xde, 0x0d, 0x00, 0x00, 0x67, 0x0f, 0x00, 0x00, 0x1a, 0x11, 0x00, 0x00,
  0xfe, 0x12, 0x00, 0x00, 0x17, 0x15, 0x00, 0x00, 0x6c, 0x17, 0x00, 0x00,
  0x03, 0x1a, 0x00, 0x00, 0xe3, 0x1c, 0x00, 0x00, 0x14, 0x20, 0x00, 0x00,
  0xa0, 0x23, 0x00, 0x00, 0x8f, 0x27, 0x00, 0x00, 0xef, 0x2b, 0x00, 0x00,
  0xca, 0x30, 0x00, 0x00, 0x2e, 0x36, 0x00, 0x00, 0x2b, 0x3c, 0x00, 0x00,
  0xd1, 0x42, 0x00, 0x00, 0x34, 0x4a, 0x00, 0x00, 0x67, 0x52, 0x00, 0x00,
  0x82, 0x5b, 0x00, 0x00, 0x9f, 0x65, 0x00, 0x00, 0xda, 0x70, 0x00, 0x00,
  0x53, 0x7d, 0x00, 0x00, 0x2d, 0x8b, 0x00, 0x00, 0x8e, 0x9a, 0x00, 0x00,
  0xa3, 0xab, 0x00, 0x00, 0x9b, 0xbe, 0x00, 0x00, 0xac, 0xd3, 0x00, 0x00,
  0x11, 0xeb, 0x00, 0x00, 0x0b, 0x05, 0x01, 0x00, 0xe5, 0x21, 0x01, 0x00,
  0xee, 0x41, 0x01, 0x00, 0x82, 0x65, 0x01, 0x00, 0x05, 0x8d, 0x01, 0x00,
  0xe6, 0xb8, 0x01, 0x00, 0xa0, 0xe9, 0x01, 0x00, 0xbc, 0x1f, 0x02, 0x00,
  0xd4, 0x5b, 0x02, 0x00, 0x8f, 0x9e, 0x02, 0x00, 0xab, 0xe8, 0x02, 0x00,
  0xf7, 0x3a, 0x03, 0x00, 0x5c, 0x96, 0x03, 0x00, 0xda, 0xfb, 0x03, 0x00,
  0x90, 0x6c, 0x04, 0x00, 0xbb, 0xe9, 0x04, 0x00, 0xbb, 0x74, 0x05, 0x00,
  0x18, 0x0f, 0x06, 0x00, 0x84, 0xba, 0x06, 0x00, 0xe2, 0x78, 0x07, 0x00,
  0x49, 0x4c, 0x08, 0x00, 0x0e, 0x37, 0x09, 0x00, 0xc5, 0x3b, 0x0a, 0x00,
  0x4c, 0x5d, 0x0b, 0x00, 0xd2, 0x9e, 0x0c, 0x00, 0xe1, 0x03, 0x0e, 0x00,
  0x66, 0x90, 0x0f, 0x00, 0xbe, 0x48, 0x11, 0x00, 0xc0, 0x31, 0x13, 0x00,
  0xcc, 0x50, 0x15, 0x00, 0xde, 0xab, 0x17, 0x00, 0x95, 0x49, 0x1a, 0x00,
  0x4f, 0x31, 0x1d, 0x00, 0x3c, 0x6b, 0x20, 0x00, 0x70, 0x00, 0x24, 0x00,
  0x02, 0xfb, 0x27, 0x00, 0x25, 0x66, 0x2c, 0x00, 0x4b, 0x4e, 0x31, 0x00,
  0x43, 0xc1, 0x36, 0x00, 0x67, 0xce, 0x3c, 0x00, 0xbf, 0x86, 0x43, 0x00,
  0x38, 0xfd, 0x4a, 0x00, 0xd4, 0x46, 0x53, 0x00, 0xe9, 0x7a, 0x5c, 0x00,
  0x60, 0xb3, 0x66, 0x00, 0x03, 0x0d, 0x72, 0x00, 0xc3, 0xa7, 0x7e, 0x00,
  0x20, 0xa7, 0x8c, 0x00, 0x82, 0x32, 0x9c, 0x00, 0xb0, 0x75, 0xad, 0x00,
  0x3d, 0xa1, 0xc0, 0x00, 0x2a, 0xeb, 0xd5, 0x00, 0x67, 0x8f, 0xed, 0x00,
  0x82, 0xd0, 0x07, 0x01, 0x6a, 0xf8, 0x24, 0x01, 0x32, 0x59, 0x45, 0x01,
  0x04, 0x4e, 0x69, 0x01, 0x26, 0x3c, 0x91, 0x01, 0xfb, 0x93, 0xbd, 0x01,
  0x61, 0xd2, 0xee, 0x01, 0xfe, 0x81, 0x25, 0x02, 0xd0, 0x3c, 0x62, 0x02,
  0xc6, 0xad, 0xa5, 0x02, 0xce, 0x92, 0xf0, 0x02, 0xce, 0xbe, 0x43, 0x03,
  0xe7, 0x1b, 0xa0, 0x03, 0x31, 0xae, 0x06, 0x04, 0x6e, 0x96, 0x78, 0x04,
  0x75, 0x15, 0xf7, 0x04, 0x27, 0x8f, 0x83, 0x05, 0x4e, 0x8f, 0x1f, 0x06,
  0x16, 0xcd, 0xcc, 0x06, 0x3c, 0x30, 0x8d, 0x07, 0x7f, 0xd6, 0x62, 0x08,
  0x47, 0x19, 0x50, 0x09, 0xab, 0x94, 0x57, 0x0a, 0xbb, 0x2e, 0x7c, 0x0b,
  0x0b, 0x1f, 0xc1, 0x0c, 0xa6, 0xf8, 0x29, 0x0e, 0x70, 0xb3, 0xba, 0x0f,
  0x08, 0xb8, 0x77, 0x11, 0xae, 0xea, 0x65, 0x13, 0x7b, 0xbb, 0x8a, 0x15,
  0xa5, 0x33, 0xec, 0x17, 0xfc, 0x06, 0x91, 0x1a, 0x56, 0xa7, 0x80, 0x1d,
  0xa6, 0x58, 0xc3, 0x20, 0xfc, 0x48, 0x62, 0x24, 0x5c, 0xab, 0x67, 0x28,
  0xc5, 0xd0, 0xde, 0x2c, 0x8f, 0x4c, 0xd4, 0x31, 0xa8, 0x14, 0x56, 0x37,
  0x4a, 0xab, 0x73, 0x3d, 0xab, 0x46, 0x3e, 0x44, 0x69, 0x07, 0xc9, 0x4b,
  0x3b, 0x2a, 0x29, 0x54, 0x0a, 0x43, 0x76, 0x5d, 0xa6, 0x82, 0xca, 0x67,
  0x75, 0xfd, 0x42, 0x73, 0xff, 0xff, 0xff, 0x7f, 0x0c, 0x00, 0x00, 0x00,
  0x00, 0x00, 0x00, 0x00, 0x00, 0x00, 0x00, 0x00, 0x00, 0x00, 0x00, 0x00,
  0x23, 0x00, 0x00, 0x00, 0x00, 0x00, 0x00, 0x00, 0x00, 0x00, 0x00, 0x00,
  0x00, 0x00, 0x00, 0x00, 0x01, 0x00, 0x00, 0x00, 0x00, 0x00, 0x00, 0x00,
  0x00, 0x00, 0x00, 0x00, 0x00, 0x00, 0x00, 0x00, 0x00, 0x00, 0x00, 0x40,
  0x00, 0x00, 0x00, 0x00, 0x00, 0x00, 0x00, 0x00, 0x00, 0x00, 0x00, 0x00,
  0xff, 0xff, 0xff, 0x7f, 0x00, 0x00, 0x00, 0x00, 0x00, 0x00, 0x00, 0x00,
  0x00, 0x00, 0x00, 0x00, 0xc4, 0xc3, 0xc3, 0xc3, 0x00, 0x00, 0x00, 0x00,
  0x00, 0x00, 0x00, 0x00, 0x00, 0x00, 0x00, 0x00, 0x5a, 0x5a, 0x5a, 0x5a,
  0x00, 0x00, 0x00, 0x00, 0x00, 0x00, 0x00, 0x00, 0x00, 0x00, 0x00, 0x00,
  0x00, 0x00, 0x00, 0x20, 0x00, 0x00, 0x00, 0x00, 0x00, 0x00, 0x00, 0x00,
  0x00, 0x00, 0x00, 0x00, 0x04, 0x00, 0x00, 0x00, 0x00, 0x00, 0x00, 0x00,
  0x00, 0x00, 0x00, 0x00, 0x00, 0x00, 0x00, 0x00, 0x02, 0x00, 0x00, 0x00,
  0x00, 0x00, 0x00, 0x00, 0x00, 0x00, 0x00, 0x00, 0x00, 0x00, 0x00, 0x00,
  0x93, 0xdf, 0xff, 0xff, 0xff, 0xb4, 0xa1, 0xd4, 0x6c, 0x26, 0x60, 0xf9,
  0xff, 0xff, 0xff, 0x2f, 0x3e, 0x1d, 0x4d, 0x25, 0x31, 0xe7, 0xff, 0xff,
  0xff, 0xb6, 0xf2, 0x27, 0x60, 0x26, 0xde, 0xf7, 0xff, 0xff, 0xff, 0xe1,
  0xf8, 0x0a, 0x59, 0x25, 0x22, 0xe9, 0xff, 0xff, 0xff, 0x62, 0xc9, 0xfb,
  0x43, 0x25, 0x70, 0xf3, 0xff, 0xff, 0xff, 0xfe, 0xc1, 0x29, 0x76, 0x26,
  0xa8, 0xe3, 0xff, 0xff, 0xff, 0x6a, 0x9f, 0x23, 0x76, 0x26, 0x80, 0xea,
  0xff, 0xff, 0xff, 0xd6, 0xa3, 0x66, 0x41, 0x25, 0x33, 0x02, 0xd0, 0xf1,
  0xfd, 0xef, 0xff, 0xc1, 0xaf, 0x4d, 0xed, 0xa9, 0x87, 0x77, 0x45, 0x55,
  0x84, 0xfe, 0xbd, 0x3d, 0x2d, 0xfd, 0x9c, 0x5c, 0x1c, 0xfc, 0x9b, 0x7a,
  0x1a, 0x0a, 0xfa, 0x59, 0xf9, 0x98, 0xd8, 0x57, 0x67, 0xc7, 0x00, 0x09,
  0xfb, 0x06, 0xe8, 0x48, 0x4e, 0xb2, 0x22, 0x41, 0x85, 0xff, 0xff, 0xff,
  0xce, 0x00, 0xf4, 0x8d, 0x40, 0xa2, 0xfe, 0xff, 0xff, 0x5f, 0x7c, 0x3d,
  0xb9, 0x53, 0xd7, 0xff, 0xff, 0xff, 0xe7, 0x0c, 0x70, 0x23, 0x79, 0x97,
  0x11, 0xee, 0xdb, 0x00, 0xd3, 0x0b, 0x2e, 0xb5, 0xe1, 0xff, 0xff, 0x1f,
  0xcf, 0x01, 0xde, 0xb8, 0x03, 0x46, 0xff, 0xff, 0xff, 0x00, 0x06, 0x70,
  0xac, 0xd7, 0xe0, 0xff, 0xff, 0x7f, 0x79, 0x02, 0xf4, 0x29, 0xe6, 0xc1,
  0x32, 0xd8, 0xff, 0xff, 0xff, 0x29, 0x40, 0x20, 0xe4, 0x55, 0x84, 0xff,
  0xff, 0xff, 0x7f, 0x16, 0x57, 0xfc, 0xff, 0xff, 0xff, 0xff, 0x00, 0xff,
  0xff, 0xff, 0xff, 0xff, 0xff, 0xff, 0xff, 0xff, 0xb5, 0xf7, 0xff, 0xff,
  0xff, 0x1b, 0x72, 0xc4, 0x4e, 0x26, 0xcf, 0xd2, 0xff, 0xff, 0xff, 0xf2,
  0x74, 0x68, 0x48, 0x26, 0x69, 0xef, 0xff, 0xff, 0xff, 0x6f, 0x06, 0x25,
  0x53, 0x26, 0x11, 0xfa, 0xff, 0xff, 0xff, 0x01, 0x67, 0x4b, 0x4b, 0x26,
  0x46, 0xfd, 0xff, 0xff, 0xff, 0xb8, 0x09, 0x99, 0x4f, 0x26, 0xc3, 0xf7,
  0xff, 0xff, 0xff, 0x6e, 0xd3, 0x80, 0x47, 0x26, 0x9e, 0xe8, 0xff, 0xff,
  0xff, 0xf6, 0x5b, 0x6c, 0x4d, 0x26, 0x68, 0xf0, 0xff, 0xff, 0xff, 0xeb,
  0x09, 0x3f, 0x65, 0x26, 0xa8, 0xc8, 0xff, 0xff, 0xff, 0x50, 0xfc, 0xcd,
  0x7e, 0x27, 0x28, 0x1e, 0x00, 0x00, 0x00, 0x46, 0x56, 0x38, 0x62, 0x26,
  0x70, 0xed, 0xff, 0xff, 0xff, 0x55, 0xed, 0x03, 0x59, 0x26, 0x2c, 0xf0,
  0xff, 0xff, 0xff, 0x35, 0x44, 0xb0, 0x6b, 0x26, 0x15, 0xf9, 0xff, 0xff,
  0xff, 0xb6, 0x05, 0x52, 0x51, 0x26, 0xea, 0x1a, 0x00, 0x00, 0x00, 0xe7,
  0x6e, 0xc8, 0x5f, 0x26, 0x86, 0xe7, 0xff, 0xff, 0xff, 0xab, 0x39, 0x12,
  0x4a, 0x26, 0x1a, 0xf6, 0xff, 0xff, 0xff, 0xbe, 0xe5, 0x64, 0x5d, 0x26,
  0x08, 0x02, 0x5c, 0x01, 0x0c, 0x00, 0x91, 0x1e, 0x67, 0x5a, 0x9d, 0xa3,
  0x8b, 0xf5, 0x00, 0x70, 0x21, 0x66, 0x09, 0x4b, 0x43, 0x45, 0x60, 0x0a,
  0x00, 0x9d, 0x03, 0x35, 0x02, 0x55, 0x1a, 0x1b, 0x43, 0x1d, 0xbb, 0x04,
  0x99, 0x11, 0x58, 0xf1, 0xae, 0x00, 0xb0, 0xbe, 0x7a, 0x39, 0xf8, 0xbe,
  0x81, 0x22, 0x00, 0x00, 0xfd, 0x3b, 0x99, 0x74, 0x65, 0x25, 0x5d, 0x8d,
  0x13, 0x17, 0x88, 0x1e, 0xad, 0x20, 0x46, 0x2a, 0x00, 0x70, 0x43, 0x97,
  0x75, 0xd1, 0x08, 0xa8, 0xf6, 0x96, 0xf4, 0x0a, 0x95, 0x40, 0xf1, 0x69,
  0x00, 0xb0, 0x7b, 0x5e, 0xb2, 0x36, 0xa5, 0xc3, 0x3b, 0xb1, 0x5d, 0x80,
  0x40, 0xef, 0x13, 0x96, 0xa0, 0x9f, 0xf2, 0x7b, 0x00, 0x68, 0xf3, 0x10,
  0xb1, 0x4e, 0x7f, 0xdb, 0xbb, 0xc3, 0xb2, 0x38, 0x7e, 0x66, 0xa6, 0x0b,
  0x00, 0xb7, 0x7a, 0x4e, 0x2f, 0xf5, 0xff, 0x69, 0xfa, 0x36, 0xd4, 0x9c,
  0xe2, 0x3e, 0xe3, 0x00, 0x92, 0xca, 0x55, 0x56, 0xc9, 0xab, 0xf7, 0x03,
  0x80, 0xc9, 0xdb, 0xc6, 0xa2, 0xb0, 0x52, 0xd7, 0xd7, 0xe9, 0x41, 0x5b,
  0xc9, 0x9f, 0xb8, 0xc7, 0x01, 0xa0, 0xbb, 0x04, 0x0e, 0xc3, 0x99, 0x43,
  0x57, 0x6e, 0xb6, 0xf9, 0x0f, 0xbe, 0x08, 0x00, 0xf6, 0x3e, 0x76, 0x15,
  0xaa, 0x33, 0xe7, 0x89, 0x00, 0xa0, 0x10, 0xf8, 0xdd, 0x89, 0x11, 0x77,
  0x01, 0x60, 0x1b, 0x66, 0x4b, 0x88, 0x87, 0xb5, 0x87, 0xe4, 0x3c, 0x79,
  0xcc, 0x92, 0x11, 0x16, 0x1d, 0x00, 0x98, 0xb7, 0xc0, 0x71, 0xd7, 0x20,
  0xff, 0x06, 0x00, 0x65, 0xad, 0xbf, 0x34, 0x80, 0xcc, 0x8f, 0xb5, 0xee,
  0xbc, 0x01, 0x06, 0x98, 0x6b, 0xe4, 0x01, 0xc0, 0x3b, 0xa0, 0x8b, 0x6e,
  0x83, 0xca, 0xeb, 0xd6, 0xf7, 0x70, 0x0a, 0xa8, 0x6e, 0x01, 0xe0, 0xaf,
  0x21, 0xdd, 0x6e, 0xde, 0xe7, 0xef, 0x5a, 0x62, 0x49, 0xb1, 0xbe, 0x04,
  0x00, 0x73, 0x98, 0x7e, 0x3e, 0xfb, 0x71, 0xad, 0x94, 0x1f, 0x64, 0x08,
  0xb6, 0xea, 0x00, 0x00, 0xf7, 0x1b, 0x23, 0xd6, 0xfc, 0xe8, 0x7b, 0x00,
  0x40, 0xb2, 0x22, 0xf4, 0x43, 0x75, 0xab, 0x3c, 0x27, 0x00, 0xb8, 0x9a,
  0x6b, 0x70, 0x43, 0xcf, 0x56, 0x69, 0xfa, 0x7d, 0x2b, 0xea, 0xaf, 0xfd,
  0x3d, 0x00, 0x98, 0x96, 0x37, 0x3b, 0xc7, 0x7c, 0x61, 0xc9, 0x66, 0x6d,
  0x36, 0x54, 0x5f, 0x07, 0x80, 0xf8, 0x6c, 0x71, 0x64, 0xe0, 0x10, 0x11,
  0x42, 0x07, 0x00, 0x7c, 0x80, 0x64, 0xa8, 0xf4, 0x71, 0xb2, 0xdd, 0xc8,
  0xfa, 0x6f, 0x0a, 0x7f, 0x2d, 0x00, 0xbb, 0x0b, 0x08, 0xbd, 0xb4, 0x54,
  0x7e, 0x74, 0x3d, 0x86, 0x2f, 0xfd, 0x1b, 0x00, 0x74, 0xdc, 0x4e, 0x2e,
  0xfe, 0x99, 0xce, 0x90, 0x3b, 0x3b, 0x49, 0xdf, 0xb5, 0x00, 0xb8, 0x4a,
  0xf5, 0xf7, 0xa9, 0x20, 0xac, 0x6c, 0x17, 0x00, 0xe0, 0xd1, 0x55, 0x2b,
  0x86, 0xd5, 0x01, 0x64, 0x6f, 0x24, 0x5d, 0x3e, 0x13, 0x00, 0x5c, 0xec,
  0x06, 0xce, 0x80, 0x03, 0x00, 0x5d, 0x52, 0xfd, 0x02, 0x61, 0x5e, 0x2b,
  0xcb, 0x00, 0x00, 0x30, 0x36, 0x52, 0x54, 0x90, 0x63, 0xb1, 0x0e, 0x00,
  0xaf, 0xb9, 0x06, 0x51, 0x61, 0x9f, 0x0f, 0x8e, 0x22, 0x72, 0x85, 0xf4,
  0xe9, 0x14, 0x68, 0x5d, 0x00, 0xa0, 0xc5, 0xd6, 0x31, 0xcc, 0x99, 0x06,
  0xd6, 0x00, 0x00, 0x6d, 0x96, 0xfd, 0x2f, 0x55, 0x18, 0x68, 0x45, 0x0c,
  0x1a, 0x8a, 0x21, 0x30, 0x3e, 0x08, 0xb1, 0x00, 0x10, 0xb4, 0xde, 0xf1,
  0xad, 0x33, 0xb7, 0x37, 0x01, 0x00, 0x87, 0x86, 0x09, 0xc1, 0x17, 0x91,
  0x78, 0xfd, 0x57, 0x40, 0x77, 0x5d, 0x2f, 0x51, 0x30, 0xe7, 0x00, 0x70,
  0x3d, 0xb7, 0xd6, 0x2f, 0xd0, 0x0f, 0x25, 0x02, 0x00, 0x39, 0x6b, 0x09,
  0x15, 0x3f, 0x29, 0xcb, 0x18, 0x01, 0x41, 0x22, 0x20, 0x1d, 0x21, 0x68,
  0x29, 0x00, 0x30, 0x19, 0xd4, 0x92, 0xf2, 0xd5, 0x57, 0x63, 0x04, 0x00,
  0x4d, 0x6b, 0x41, 0x1a, 0x21, 0xfd, 0x06, 0x97, 0x3c, 0x0b, 0xba, 0x5f,
  0x2a, 0x4d, 0x07, 0x5c, 0x00, 0xc0, 0x14, 0x06, 0xc1, 0xf3, 0x10, 0x33,
  0x1a, 0x01, 0x00, 0x27, 0x30, 0x21, 0x5a, 0x2f, 0x19, 0x3c, 0x17, 0x3e,
  0x05, 0xb4, 0x14, 0x6f, 0x95, 0x88, 0x30, 0x00, 0xb0, 0x5a, 0xf0, 0xe0,
  0x53, 0x92, 0x3c, 0x62, 0x06, 0x00, 0x67, 0x52, 0x06, 0x4f, 0x13, 0x16,
  0x3d, 0x26, 0x2c, 0x4c, 0x09, 0xa8, 0x83, 0x8a, 0x71, 0x18, 0x00, 0xe0,
  0x20, 0xf1, 0x61, 0x77, 0x50, 0x4d, 0xaa, 0x00, 0x00, 0x18, 0x08, 0x1c,
  0x14, 0x6e, 0x1d, 0x3f, 0x50, 0x29, 0x50, 0xab, 0x65, 0x35, 0x30, 0x41,
  0x75, 0xfc, 0xdf, 0x97, 0x60, 0xb3, 0x41, 0x76, 0x24, 0xf5, 0xff, 0xff,
  0xff, 0xff, 0xff, 0xff, 0xff, 0xff, 0xff, 0xff, 0xff, 0xff, 0xff, 0xff,
  0xff, 0xff, 0xff, 0xff, 0xff, 0xff, 0xff, 0xff, 0x03, 0x30, 0x00, 0xc0,
  0x01, 0x70, 0x01, 0x6a, 0x04, 0x07, 0x20, 0xd8, 0xb8, 0xb4, 0xc4, 0x93,
  0xb0, 0xe7, 0x7f, 0x00, 0x60, 0xe9, 0x07, 0x22, 0xc8, 0x25, 0x8b, 0x45,
  0x02, 0x00, 0x76, 0x51, 0xaa, 0x7a, 0x6c, 0xee, 0x26, 0x16, 0xee, 0x16,
  0x16, 0xf6, 0x16, 0x66, 0x9f, 0x73, 0x00, 0x80, 0x04, 0xa1, 0x50, 0x4d,
  0x51, 0xe5, 0x8e, 0x00, 0x00, 0xe2, 0xda, 0x04, 0x8e, 0x3c, 0xd6, 0x72,
  0xa8, 0x38, 0x70, 0x7e, 0x45, 0x88, 0x7a, 0x69, 0x76, 0x01, 0x20, 0x61,
  0xd4, 0xe7, 0x15, 0xcf, 0x93, 0x64, 0x83, 0x00, 0xe2, 0xc4, 0xd0, 0x5a,
  0xfa, 0x7a, 0x42, 0x3d, 0x2a, 0xc7, 0xc7, 0x18, 0x9e, 0xbb, 0x5a, 0x0a,
  0x00, 0x20, 0x2a, 0x4d, 0x67, 0xc6, 0x67, 0x4b, 0x20, 0x08, 0x00, 0x39,
  0x74, 0x90, 0x10, 0x50, 0x48, 0x92, 0x1f, 0x96, 0x3d, 0x56, 0xfb, 0x39,
  0xde, 0xe3, 0xea, 0x00, 0x60, 0xa9, 0xef, 0xa7, 0xa1, 0x2e, 0xa0, 0x4f,
  0x05, 0x20, 0xa4, 0x7e, 0x1e, 0x6e, 0x4d, 0x2e, 0x75, 0x16, 0x01, 0xa0,
  0x68, 0x7b, 0xc3, 0x6f, 0x72, 0x2d, 0xeb, 0x4b, 0x25, 0xaa, 0x6c, 0x90,
  0x62, 0x58, 0xe7, 0x05, 0x00, 0x2e, 0xa6, 0x26, 0xd2, 0x52, 0x3a, 0x24,
  0x2c, 0x00, 0x80, 0x0b, 0x81, 0x65, 0x22, 0x25, 0x81, 0xa3, 0x08, 0xa6,
  0x06, 0x03, 0x4d, 0xc8, 0xed, 0x6b, 0x02, 0x00, 0x9a, 0x3c, 0x6a, 0x8a,
  0x76, 0x04, 0x92, 0xc6, 0x00, 0x20, 0x01, 0xca, 0x8b, 0xfa, 0x84, 0x2e,
  0xa6, 0x40, 0xa4, 0xd3, 0x8e, 0x42, 0xe4, 0x67, 0x52, 0x01, 0x00, 0x26,
  0x4d, 0x5a, 0x3f, 0xac, 0x2a, 0x60, 0x80, 0x01, 0xe0, 0x6a, 0xa5, 0x6b,
  0x6e, 0x66, 0xb6, 0x3f, 0x66, 0xb6, 0xee, 0x09, 0xee, 0x62, 0x6e, 0xe6,
  0x08, 0x00, 0xa0, 0xad, 0x0b, 0xf9, 0x09, 0x5e, 0xb4, 0x0c, 0x00, 0xe0,
  0xc5, 0x60, 0xed, 0xef, 0x45, 0x26, 0xeb, 0x17, 0x0f, 0x76, 0x63, 0x6a,
  0x27, 0xb3, 0x4d, 0x0a, 0x00, 0xba, 0x70, 0x86, 0x8b, 0x78, 0x24, 0x2c,
  0x96, 0x01, 0x40, 0x20, 0xa0, 0xb8, 0x46, 0xa3, 0xa8, 0x8d, 0x20, 0x82,
  0x86, 0x8b, 0x2c, 0xee, 0xa3, 0x82, 0x03, 0x00, 0x4e, 0xbe, 0xa0, 0x36,
  0xe7, 0x16, 0x3f, 0x13, 0x00, 0x62, 0xf6, 0xa2, 0x74, 0x8e, 0xa1, 0x13,
  0xa2, 0x5f, 0x02, 0xe3, 0x69, 0x2d, 0x20, 0x80, 0x86, 0x01, 0x00, 0x14,
  0x60, 0x58, 0x12, 0x4d, 0x96, 0x4d, 0xe6, 0x01, 0x20, 0x8f, 0xa6, 0x2a,
  0x61, 0xb7, 0x3f, 0xb3, 0x87, 0xc3, 0xc4, 0x53, 0xad, 0x21, 0x80, 0x08,
  0x06, 0x00, 0x32, 0x82, 0x6d, 0xee, 0x0c, 0x72, 0x8e, 0x86, 0x00, 0xa0,
  0x09, 0x45, 0xa1, 0x49, 0x67, 0x38, 0x6c, 0x09, 0xbd, 0x3f, 0x6f, 0x21,
  0x6b, 0xeb, 0x62, 0x08, 0x00, 0xd2, 0xbe, 0xf2, 0x1e, 0x62, 0x60, 0x58,
  0x08, 0x04, 0x00, 0x05, 0xa6, 0xa5, 0xe3, 0x68, 0x24, 0x87, 0xa4, 0xf5,
  0xe2, 0x05, 0xe0, 0xac, 0x26, 0x0a, 0x05, 0x00, 0x74, 0x86, 0x06, 0x45,
  0x2a, 0x5e, 0x23, 0x5c, 0x00, 0x20, 0x24, 0xec, 0x04, 0x25, 0x2c, 0x37,
  0x23, 0x72, 0x00, 0xe7, 0xa7, 0x29, 0x13, 0xa3, 0x0e, 0x07, 0x00, 0x9e,
  0x38, 0xc2, 0x30, 0xc2, 0x84, 0x5b, 0xf4, 0x00, 0x80, 0x6a, 0xf4, 0x6a,
  0xfa, 0x2b, 0xb2, 0xf2, 0x27, 0x87, 0x8a, 0xa3, 0x08, 0x46, 0xe0, 0x4a,
  0x85, 0x00, 0xa6, 0x01, 0x1a, 0x2e, 0x3a, 0x12, 0x18, 0xbe, 0x00, 0xe0,
  0xb5, 0x44, 0x67, 0x23, 0xfb, 0xa7, 0x66, 0x62, 0x54, 0xb0, 0xda, 0x22,
  0x70, 0x07, 0x22, 0x14, 0x00, 0xc6, 0x0c, 0xe4, 0x88, 0x3a, 0x5b, 0x12,
  0x5e, 0x01, 0x40, 0x28, 0xbb, 0x3f, 0x7b, 0xb3, 0xe9, 0xc3, 0x83, 0xf0,
  0x80, 0xed, 0xcb, 0xf2, 0x29, 0x62, 0x01, 0x00, 0x4a, 0x35, 0xe6, 0x1a,
  0x20, 0x2e, 0xbf, 0x1a, 0x00, 0xe0, 0x79, 0x21, 0x82, 0x21, 0x91, 0x05,
  0x00, 0x8a, 0xa5, 0x82, 0x2c, 0xa3, 0x12, 0x02, 0x41, 0x07, 0x00, 0x74,
  0xca, 0x35, 0x4e, 0xbb, 0x62, 0x2e, 0xc1, 0x00, 0x20, 0x30, 0xe4, 0x35,
  0xe2, 0x28, 0xed, 0xe3, 0x05, 0x8d, 0xa0, 0x62, 0x80, 0xa4, 0x85, 0xa4,
  0x1f, 0x00, 0xd8, 0xb6, 0x81, 0xde, 0xbf, 0x46, 0x93, 0x0c, 0x01, 0xe0,
  0xa5, 0xa1, 0x29, 0x07, 0xa5, 0x1b, 0x72, 0xa0, 0x4d, 0x66, 0x95, 0x07,
  0x26, 0x63, 0xf8, 0x05, 0x01, 0x0a, 0x79, 0xfa, 0x86, 0x3a, 0x36, 0x36,
  0x18, 0x00, 0xc0, 0x20, 0x4b, 0x06, 0x20, 0xa1, 0xd4, 0xc0, 0x0c, 0x00,
  0x5c, 0x9c, 0x0a, 0x90, 0x4e, 0x0c, 0x12, 0x46, 0xb7, 0x1c, 0x5c, 0xfe,
  0x2c, 0x18, 0x50, 0x1e, 0x01, 0xa0, 0xc1, 0x6a, 0x23, 0x5d, 0x2a, 0x06,
  0x4a, 0xa0, 0x69, 0xa5, 0x34, 0xe0, 0x90, 0x61, 0x00, 0x80, 0xf3, 0xff,
  0xff, 0xf3, 0x0f, 0x80, 0xff, 0xff, 0xff, 0xff, 0x9f, 0xfa, 0xff, 0xff,
  0xff, 0xaf, 0x51, 0x87, 0x56, 0x28, 0x6c, 0x10, 0x00, 0x00, 0x00, 0xaf,
  0x51, 0x87, 0x56, 0x28, 0xf6, 0xf6, 0xff, 0xff, 0xff, 0xaf, 0x51, 0x87,
  0x56, 0x28, 0x00, 0x00, 0x10, 0x47, 0x54, 0x01, 0x7c, 0xeb, 0x00, 0x60,
  0xe9, 0x45, 0x94, 0xfb, 0x76, 0x6a, 0xb6, 0x15, 0x70, 0x03, 0x90, 0x8e,
  0x18, 0xb5, 0x64, 0x4b, 0x22, 0xc4, 0x61, 0xff, 0xff, 0x64, 0x8c, 0x61,
  0x43, 0xeb, 0xe4, 0xff, 0xf1, 0x3b, 0xd4, 0xda, 0x1a, 0xd7, 0xff, 0x3f,
  0xc0, 0x66, 0x03, 0x80, 0x6e, 0x5b, 0xd4, 0x2c, 0x58, 0x63, 0xdd, 0x77,
  0x0d, 0xf8, 0x57, 0x42, 0x00, 0x37, 0x94, 0x24, 0xff, 0x9f, 0xcb, 0xc7,
  0x86, 0x26, 0x0a, 0xb1, 0xff, 0xff, 0x07, 0x00, 0x48, 0xaa, 0x00, 0xf0,
  0xf2, 0xcb, 0xf2, 0xc7, 0xba, 0xd2, 0xe5, 0xbe, 0xfa, 0x7f, 0x82, 0xff,
  0xaf, 0x6a, 0x24, 0x4a, 0x14, 0x67, 0x53, 0xfd, 0x3f, 0x00, 0x54, 0xfd,
  0x20, 0x00, 0x30, 0x3c, 0xc2, 0x07, 0xcc, 0x88, 0x9c, 0x27, 0xd8, 0xcb,
  0xff, 0x17, 0xe8, 0x55, 0x84, 0x54, 0x27, 0x5d, 0xcd, 0xfd, 0x7f, 0x06,
  0xc1, 0x31, 0xb6, 0x2a, 0x40, 0xf2, 0xff, 0x1f, 0x00, 0x00, 0x86, 0x4d,
  0x81, 0xff, 0x93, 0x29, 0x4b, 0xd8, 0x96, 0x86, 0x64, 0xfb, 0xff, 0xa7,
  0xff, 0xcf, 0xed, 0x3f, 0x02, 0x13, 0xf6, 0x0f, 0x00, 0x10, 0xb5, 0x92,
  0x20, 0x00, 0x3c, 0xb7, 0x03, 0xd7, 0xca, 0x0f, 0x6c, 0xfe, 0xbf, 0x44,
  0x6d, 0x98, 0x7e, 0x60, 0x58, 0x24, 0xfd, 0xff, 0xff, 0x03, 0x00, 0x5f,
  0x56, 0x64, 0x0f, 0x00, 0xd6, 0xfa, 0xe8, 0x6e, 0xb5, 0x39, 0xf3, 0x76,
  0xff, 0xdf, 0x1d, 0x48, 0x3e, 0xde, 0x5c, 0xff, 0xdf, 0xb5, 0x26, 0xa2,
  0xfa, 0xff, 0x07, 0xf0, 0x73, 0x00, 0x40, 0x62, 0xea, 0xf5, 0x27, 0xe7,
  0x72, 0x55, 0x0a, 0x40, 0xdd, 0x16, 0xfe, 0xab, 0xa5, 0x47, 0x5c, 0x57,
  0xf1, 0xff, 0xb9, 0xa0, 0x76, 0xce, 0xfb, 0xff, 0x7f, 0xf0, 0x2c, 0x00,
  0x70, 0x77, 0x45, 0x67, 0x10, 0x28, 0x5e, 0x48, 0xb3, 0x07, 0xf8, 0x20,
  0x95, 0xe0, 0x6d, 0xad, 0xe5, 0xff, 0x7f, 0x6f, 0x59, 0x01, 0xb7, 0x96,
  0xe7, 0xff, 0xff, 0x1f, 0x10, 0x2c, 0xdb, 0xb5, 0x97, 0x00, 0x40, 0xd6,
  0xe0, 0x0a, 0x6f, 0x0b, 0xe3, 0xf7, 0xff, 0x5f, 0xc6, 0x48, 0x88, 0x4c,
  0xa0, 0x23, 0xfb, 0xff, 0xa5, 0x2e, 0x13, 0x45, 0xc0, 0xff, 0x7f, 0x80,
  0x95, 0x07, 0x80, 0x81, 0xda, 0x82, 0x7f, 0x7e, 0xf9, 0xba, 0x86, 0x11,
  0x22, 0xce, 0x9f, 0xf6, 0xff, 0x42, 0x20, 0x1c, 0x5d, 0x2e, 0xf9, 0x7f,
  0xd3, 0x08, 0xbb, 0x18, 0x0b, 0x73, 0xfe, 0x01, 0x02, 0xb2, 0x63, 0x01,
  0xf8, 0x33, 0x39, 0x7e, 0x85, 0x74, 0xb3, 0x0b, 0xff, 0xaf, 0xff, 0xff,
  0x00, 0x9b, 0x0e, 0x63, 0xc3, 0xff, 0x03, 0xc0, 0xc9, 0x68, 0x94, 0x0e,
  0x00, 0x53, 0xda, 0xbc, 0x77, 0x34, 0x19, 0x27, 0x94, 0xff, 0x17, 0xe1,
  0x57, 0x13, 0xb2, 0xd8, 0xf8, 0xff, 0x66, 0x9f, 0x58, 0xf9, 0x9b, 0x21,
  0xe0, 0xff, 0x3f, 0xc0, 0xa9, 0x03, 0x40, 0x88, 0x54, 0xc2, 0xff, 0xf0,
  0xc9, 0xa2, 0x01, 0x02, 0x39, 0xe2, 0xff, 0xbd, 0x49, 0x1c, 0xdb, 0x23,
  0xaf, 0xf9, 0xff, 0xff, 0x30, 0x13, 0x00, 0xb0, 0xa9, 0x05, 0xf0, 0x3c,
  0x9a, 0xff, 0xc9, 0x54, 0xb6, 0xff, 0x9e, 0xff, 0x9f, 0x9e, 0x07, 0xed,
  0x48, 0xa7, 0xf1, 0xff, 0x41, 0xbd, 0xe5, 0xca, 0xff, 0x03, 0xc0, 0xf2,
  0x0d, 0xba, 0x37, 0x00, 0xc8, 0x66, 0x86, 0x0b, 0x5f, 0x7f, 0x5f, 0x5b,
  0xff, 0xff, 0x56, 0x08, 0x0c, 0xc4, 0xad, 0xf5, 0xff, 0x27, 0x08, 0xbc,
  0xde, 0xb8, 0xff, 0xff, 0x00, 0x99, 0x0c, 0x00, 0xcd, 0xf9, 0x33, 0xed,
  0x52, 0x52, 0x78, 0x04, 0x2b, 0xb9, 0x18, 0xfe, 0x1b, 0xf0, 0x02, 0x00,
  0xe8, 0xfc, 0xff, 0x17, 0xd0, 0xdc, 0x62, 0xf5, 0xff, 0xff, 0x7f, 0xe0,
  0x4d, 0x00, 0xc8, 0x7f, 0x1b, 0xc0, 0x13, 0xe7, 0xaa, 0x38, 0xfb, 0x78,
  0xbf, 0xfd, 0x3f, 0x15, 0x3d, 0x0b, 0x81, 0x11, 0xbc, 0xff, 0x6f, 0x75,
  0xe9, 0x61, 0x8e, 0x99, 0xff, 0x0f, 0x00, 0x51, 0x5a, 0x00, 0x80, 0xf0,
  0xaa, 0x07, 0xa0, 0x72, 0xda, 0xc8, 0xbc, 0x6a, 0xfe, 0xff, 0x8b, 0xe9,
  0xea, 0x11, 0x6b, 0xb9, 0xff, 0x97, 0x46, 0xd5, 0xe7, 0x5d, 0xfa, 0xff,
  0xff, 0x00, 0xef, 0x0e, 0x00, 0x03, 0xdc, 0x2d, 0xfc, 0xcb, 0xb9, 0x61,
  0x18, 0x58, 0x4a, 0x52, 0x29, 0xe6, 0xfe, 0x5f, 0x93, 0x05, 0x6d, 0x30,
  0x93, 0xfa, 0xff, 0x40, 0xbe, 0x9a, 0xf4, 0x0e, 0xf0, 0x0f, 0x00, 0x10,
  0x12, 0x00, 0xff, 0xcd, 0xfc, 0x7f, 0x90, 0xc2, 0xf2, 0x12, 0x6f, 0x81,
  0xfb, 0xff, 0x30, 0x08, 0x14, 0x42, 0x7f, 0xde, 0xfc, 0xff, 0x03, 0x40,
  0x3c, 0x01, 0xd0, 0x54, 0x43, 0xa3, 0x59, 0x11, 0xd8, 0xb1, 0x4b, 0xfc,
  0x7f, 0x36, 0xe3, 0xe0, 0xf6, 0xe8, 0xaf, 0xff, 0xff, 0xff, 0x0f, 0x80,
  0x35, 0x00, 0xb2, 0x54, 0x3f, 0x82, 0x00, 0x4a, 0xd0, 0x43, 0x85, 0xc3,
  0x7f, 0x5c, 0xb7, 0x0d, 0x0e, 0xa3, 0x3a, 0xff, 0xff, 0xff, 0xb1, 0xf5,
  0xff, 0x46, 0x30, 0x1f, 0xfd, 0x3f, 0xe4, 0x3e, 0x00, 0xbc, 0x7d, 0xaf,
  0x8c, 0x2a, 0xf5, 0x78, 0x98, 0x0c, 0xe0, 0x5f, 0xc0, 0xe7, 0x00, 0x15,
  0xf8, 0xd8, 0xfd, 0x7f, 0xa7, 0xe3, 0x6d, 0x38, 0xa8, 0xf1, 0xff, 0x37,
  0xe2, 0x37, 0x20, 0x05, 0xfe, 0x1f, 0x00, 0xd8, 0x1a, 0x10, 0x62, 0x6f,
  0xfb, 0xff, 0x91, 0xfd, 0x01, 0xe2, 0x00, 0xee, 0xea, 0xff, 0x37, 0x2a,
  0xd0, 0xfd, 0x45, 0xfc, 0xff, 0x03, 0xb4, 0x16, 0x00, 0xb4, 0xbf, 0xde,
  0xc6, 0xe3, 0xed, 0xd1, 0xf2, 0x21, 0x11, 0xfc, 0x5f, 0xd9, 0xbd, 0x25,
  0x48, 0xff, 0x6f, 0x51, 0x79, 0x5f, 0x11, 0x5f, 0xff, 0xff, 0x1f, 0x28,
  0x03, 0x00, 0x08, 0xb3, 0x01, 0xde, 0x2a, 0x51, 0xf2, 0x4d, 0x96, 0x09,
  0x0d, 0xf9, 0xd4, 0xff, 0x2f, 0xe1, 0x5c, 0x65, 0x28, 0x4a, 0xc2, 0xff,
  0x37, 0x4d, 0x40, 0xb1, 0x10, 0xfe, 0x3f, 0x00, 0xac, 0x31, 0x00, 0xa0,
  0x7a, 0xaf, 0xb5, 0x8d, 0xa4, 0xaa, 0xf2, 0x61, 0xaa, 0x6e, 0xf3, 0xff,
  0x90, 0x2a, 0x97, 0xaf, 0xe6, 0xff, 0xeb, 0x31, 0x29, 0x35, 0x23, 0x04,
  0xf9, 0xff, 0xff, 0x00, 0x72, 0x00, 0x00, 0x6d, 0xaa, 0xf0, 0x8f, 0x0f,
  0xe7, 0x44, 0x4b, 0x2a, 0x8a, 0xff, 0x57, 0xbd, 0xbc, 0xb0, 0x5c, 0x9e,
  0xff, 0xff, 0x0f, 0xcb, 0x09, 0x00, 0xf7, 0xda, 0x7f, 0xcc, 0xa1, 0xe0,
  0x56, 0x89, 0x2b, 0xc0, 0x03, 0x86, 0xef, 0x41, 0xc2, 0xff, 0x87, 0x51,
  0xf3, 0x58, 0xe3, 0xcc, 0x62, 0xca, 0xff, 0xff, 0x3f, 0x00, 0xfd, 0x07,
  0x0c, 0x10, 0x90, 0x56, 0x3a, 0x00, 0x9c, 0x99, 0xe0, 0x57, 0xa4, 0xea,
  0xe1, 0xff, 0xdd, 0x15, 0x06, 0x38, 0x83, 0xf8, 0xff, 0xff, 0x49, 0x2f,
  0xe4, 0x51, 0xe2, 0xff, 0xff, 0x00, 0x1c, 0x0d, 0x04, 0xc3, 0x54, 0xc1,
  0xff, 0x0e, 0x7b, 0x6a, 0x20, 0x1c, 0x56, 0xe9, 0xff, 0x57, 0xe0, 0x65,
  0x5f, 0xfd, 0xff, 0xff, 0x01, 0xc5, 0x00, 0x40, 0xa9, 0x1d, 0xe0, 0xb5,
  0x05, 0x9f, 0xc8, 0xc1, 0xf7, 0x87, 0xd6, 0xd2, 0xff, 0x6f, 0x46, 0xac,
  0x68, 0x6c, 0x3b, 0xff, 0x8f, 0x89, 0x6d, 0x6b, 0x93, 0xf7, 0xff, 0x00,
  0xc0, 0xcc, 0xdb, 0x2a, 0x02, 0xc0, 0x74, 0x6c, 0xba, 0xfa, 0x49, 0xa5,
  0xff, 0xff, 0x3f, 0x44, 0xbf, 0x1c, 0x22, 0x69, 0x65, 0xf8, 0x7f, 0x4c,
  0xb2, 0x6c, 0x33, 0x41, 0xfe, 0xff, 0x0f, 0x60, 0x54, 0x00, 0xa0, 0x43,
  0x1b, 0xfe, 0x4f, 0x36, 0x66, 0xa1, 0xbc, 0x95, 0x77, 0xb9, 0xff, 0xdf,
  0x45, 0x4f, 0xfb, 0x79, 0x2f, 0xf8, 0xff, 0x9b, 0xd2, 0x67, 0x5d, 0xf8,
  0x07, 0x00, 0x70, 0x79, 0x10, 0x3f, 0x04, 0xf8, 0x44, 0x27, 0xb1, 0xea,
  0xef, 0xd4, 0x50, 0xfd, 0xff, 0xeb, 0xf5, 0x81, 0xd6, 0x0e, 0x3e, 0xf9,
  0xff, 0xff, 0x07, 0x80, 0xe4, 0x2c, 0x22, 0x17, 0x00, 0x8a, 0xe1, 0x40,
  0x05, 0x85, 0x60, 0xe2, 0x63, 0xe8, 0xff, 0x7b, 0xa7, 0x2b, 0x81, 0x78,
  0x5c, 0xfd, 0xff, 0x4f, 0x73, 0x4f, 0x7f, 0x46, 0x04, 0xff, 0xff, 0x00,
  0xcd, 0x04, 0x00, 0x44, 0x7b, 0xc1, 0x7f, 0x53, 0xe9, 0x22, 0xf4, 0x07,
  0x8f, 0xe6, 0xfd, 0xff, 0x55, 0x20, 0xb3, 0x50, 0x08, 0xfe, 0xff, 0x1f,
  0xf8, 0x09, 0x20, 0x8e, 0x6e, 0x00, 0xf0, 0x09, 0xca, 0x0e, 0x78, 0xa4,
  0xf7, 0xe6, 0xfe, 0x3f, 0x67, 0x29, 0x29, 0x52, 0x91, 0x0f, 0x85, 0xff,
  0xbf, 0x40, 0x74, 0x2a, 0x03, 0xfb, 0x7f, 0x00, 0x38, 0x33, 0x00, 0xe8,
  0x39, 0xaf, 0x1a, 0x67, 0x53, 0xdc, 0x51, 0xb6, 0xea, 0xff, 0xcd, 0x35,
  0x4f, 0x45, 0x4d, 0xe3, 0xff, 0x0f, 0x44, 0x9b, 0x95, 0x9a, 0xf9, 0xff,
  0x0f, 0xd0, 0x57, 0x00, 0xa0, 0xe6, 0xdc, 0xec, 0xb7, 0x90, 0x68, 0x1e,
  0x17, 0xec, 0x0e, 0xff, 0x46, 0x28, 0x06, 0xb7, 0xce, 0xfd, 0x7f, 0x3b,
  0xf8, 0xca, 0xb1, 0xd1, 0xfb, 0xff, 0xff, 0xf0, 0x6d, 0x00, 0x62, 0x6f,
  0xb5, 0x00, 0xde, 0xe6, 0xba, 0x3a, 0x08, 0xf7, 0xeb, 0xff, 0x57, 0x39,
  0x53, 0x68, 0xc9, 0x24, 0xfb, 0xff, 0x89, 0xc4, 0x22, 0x93, 0xad, 0xff,
  0x07, 0x80, 0x48, 0x56, 0x80, 0xe0, 0xff, 0x80, 0x8f, 0x36, 0x6a, 0x0e,
  0x57, 0x73, 0xa5, 0xe9, 0xff, 0xbf, 0xaf, 0x4a, 0xc4, 0xfc, 0xf0, 0xff,
  0x6f, 0x9c, 0x96, 0x18, 0xf6, 0xff, 0x1f, 0xa0, 0xe5, 0x00, 0xe0, 0x52,
  0x2c, 0xf0, 0x9f, 0x8c, 0xfd, 0x09, 0x1e, 0x4d, 0x2a, 0xf2, 0xff, 0xcd,
  0x99, 0x81, 0x3a, 0x79, 0xa4, 0xaa, 0xff, 0x4f, 0x6d, 0x71, 0x06, 0x0b,
  0x0f, 0xce, 0x3f, 0x20, 0x00, 0x11, 0x03, 0x7c, 0xf9, 0xfd, 0xff, 0x37,
  0x0d, 0x50, 0x10, 0xa2, 0x14, 0xaf, 0xce, 0xff, 0xfb, 0x10, 0xe5, 0xba,
  0xff, 0x0f, 0x00, 0x52, 0x7d, 0x66, 0x13, 0x00, 0x15, 0x0a, 0x57, 0x40,
  0xfe, 0x23, 0x85, 0xf5, 0xff, 0xb9, 0xbf, 0x66, 0x34, 0x68, 0x06, 0x81,
  0xff, 0xcf, 0x8b, 0x84, 0xac, 0x24, 0xc4, 0xff, 0xff, 0x00, 0xc1, 0x00,
  0x00, 0x79, 0x58, 0xf8, 0xd7, 0x21, 0x57, 0x78, 0x99, 0x2b, 0xee, 0xca,
  0xfe, 0xdf, 0xe7, 0x1f, 0x26, 0x3b, 0xf0, 0xff, 0xff, 0x61, 0x6b, 0x00,
  0xe0, 0x75, 0xce, 0xe0, 0x55, 0x09, 0x7b, 0x89, 0x04, 0xf8, 0x88, 0xb2,
  0xf1, 0x68, 0x90, 0xe2, 0x3c, 0xff, 0xff, 0xf4, 0xaf, 0xff, 0xaf, 0xce,
  0xaa, 0x33, 0xb4, 0xc3, 0xff, 0xf7, 0xc9, 0xbf, 0xfa, 0x01, 0xe0, 0xcf,
  0x00, 0x40, 0xc0, 0xdb, 0xfe, 0x7f, 0x67, 0x39, 0x4f, 0xc3, 0x58, 0xac,
  0x60, 0x1e, 0xe9, 0xfd, 0xff, 0x9e, 0xe2, 0x19, 0xa4, 0xfc, 0x7f, 0xcd,
  0x20, 0x4b, 0x9e, 0x1f, 0xa0, 0xfb, 0x01, 0xa0, 0xd2, 0x7f, 0x82, 0x7f,
  0x89, 0x59, 0x7e, 0xeb, 0xc7, 0x30, 0xb1, 0xff, 0xc7, 0x0c, 0x10, 0x57,
  0xfd, 0x6b, 0xfe, 0xff, 0x33, 0xd1, 0x55, 0x70, 0x13, 0xc7, 0xfc, 0x07,
  0x00, 0xc8, 0xfa, 0x00, 0x80, 0xef, 0x3a, 0x65, 0x75, 0x9a, 0x60, 0x8c,
  0xef, 0xfe, 0xff, 0xdf, 0x5b, 0xb0, 0xff, 0x9f, 0xfa, 0x08, 0xe0, 0xff,
  0x49, 0xbc, 0x14, 0x34, 0xdb, 0x37, 0x01, 0x00, 0xbe, 0x05, 0x00, 0x44,
  0x79, 0xfe, 0x7f, 0xf1, 0x8a, 0x56, 0x92, 0x9a, 0x35, 0x34, 0xff, 0x9f,
  0x5d, 0xac, 0x22, 0x34, 0xa2, 0xff, 0xff, 0x01, 0x00, 0x06, 0x00, 0x16,
  0x14, 0xf8, 0x27, 0x68, 0xe5, 0x49, 0x73, 0xf4, 0x30, 0xff, 0x6f, 0x37,
  0xe9, 0xa4, 0x0a, 0x73, 0xc1, 0xff, 0xff, 0x7f, 0x38, 0x70, 0x00, 0x30,
  0x4b, 0x0e, 0xe0, 0xcf, 0xc8, 0xe6, 0xe5, 0xf0, 0x34, 0x55, 0xb6, 0xff,
  0x9f, 0x7d, 0x04, 0xb4, 0x9d, 0x9c, 0xff, 0x7f, 0xb4, 0x0b, 0x78, 0x67,
  0xfc, 0xff, 0x07, 0x00, 0xb7, 0x34, 0x42, 0x3b, 0x10, 0x8c, 0x0b, 0x0e,
  0x87, 0xb4, 0xc8, 0x66, 0x1d, 0xff, 0x9f, 0x69, 0x42, 0x95, 0x00, 0x64,
  0x47, 0xfe, 0x9f, 0xb6, 0xde, 0x8a, 0x08, 0xcb, 0xff, 0xff, 0x03, 0x80,
  0x0f, 0x00, 0x10, 0x9b, 0x86, 0xff, 0x81, 0x0e, 0xf6, 0xfd, 0xdf, 0x6a,
  0x2a, 0xe4, 0xff, 0x55, 0x56, 0x0a, 0x40, 0xd9, 0x45, 0xf9, 0xff, 0x7f,
  0x68, 0x52, 0x00, 0xd8, 0x53, 0x12, 0xe0, 0xd3, 0x1b, 0x58, 0x5e, 0x9a,
  0x52, 0xfc, 0xff, 0x5f, 0xa6, 0xdd, 0x98, 0xf1, 0x66, 0xd7, 0xff, 0x5f,
  0xca, 0x18, 0x08, 0x08, 0xff, 0x0f, 0x00, 0xdf, 0x3d, 0xe9, 0xbd, 0x02,
  0x80, 0x69, 0xd8, 0x46, 0x73, 0x1f, 0xd3, 0xe2, 0xff, 0x13, 0x90, 0x07,
  0xc0, 0x82, 0xfd, 0x3f, 0x09, 0x98, 0xa0, 0xa2, 0xe7, 0xfb, 0xeb, 0xff,
  0x1f, 0x60, 0x83, 0x00, 0x40, 0xe0, 0x17, 0xfc, 0x2b, 0xd3, 0x71, 0xbb,
  0x01, 0xc0, 0x10, 0x82, 0xc4, 0xf1, 0xff, 0xf5, 0x54, 0x41, 0x6b, 0x6c,
  0x2b, 0xff, 0x3f, 0x6f, 0xbc, 0x58, 0x33, 0xf1, 0xf2, 0x7f, 0x00, 0x80,
  0x5a, 0x02, 0xf8, 0x7d, 0x52, 0xfe, 0x9f, 0x65, 0x2b, 0x4c, 0xad, 0xf4,
  0xff, 0x89, 0x14, 0xc7, 0x06, 0x62, 0x54, 0xfd, 0x7f, 0x00, 0x80, 0xc0,
  0x01, 0xc0, 0x8d, 0x12, 0xd7, 0x8b, 0x49, 0x28, 0x30, 0x76, 0xf4, 0xff,
  0xff, 0xb2, 0x7a, 0x50, 0xf4, 0x65, 0x38, 0xff, 0xff, 0xcf, 0xfa, 0x6f,
  0x0c, 0x40, 0xff, 0xff, 0x00, 0xb1, 0x88, 0x80, 0x50, 0x41, 0xe0, 0x7f,
  0x0a, 0x99, 0x3f, 0x5f, 0x69, 0xab, 0xe6, 0xff, 0x7f, 0x89, 0xa1, 0xf8,
  0xd6, 0x72, 0xf5, 0xff, 0xff, 0x01, 0x00, 0x26, 0x52, 0x15, 0x3f, 0xc0,
  0x33, 0xf6, 0xb8, 0x1d, 0xa2, 0x42, 0x07, 0xbc, 0x17, 0xff, 0xbf, 0x47,
  0x97, 0xd6, 0x8b, 0xf7, 0x79, 0xff, 0x3f, 0x1e, 0x27, 0x59, 0xfc, 0x3f,
  0x00, 0x34, 0x07, 0x00, 0xf8, 0xdf, 0x3a, 0x8d, 0x7e, 0xd4, 0xdf, 0x23,
  0x53, 0xff, 0xff, 0xac, 0xe8, 0x59, 0x86, 0xaf, 0xfe, 0x7f, 0x0d, 0x0e,
  0x67, 0x97, 0x8c, 0xff, 0x7f, 0x80, 0x9e, 0x02, 0x00, 0x95, 0xdc, 0xc1,
  0x7f, 0x39, 0x0e, 0x71, 0x30, 0x50, 0x80, 0xad, 0xef, 0xff, 0x4b, 0x4b,
  0x4b, 0xfd, 0xed, 0x3f, 0xfc, 0x7f, 0xbf, 0xf3, 0xc2, 0x13, 0xf5, 0x7f,
  0x00, 0x80, 0xb5, 0x3e, 0x7d, 0x06, 0x80, 0x67, 0x5b, 0xc3, 0x11, 0xa3,
  0x94, 0x4a, 0xff, 0xcf, 0x87, 0x61, 0x07, 0x93, 0xbc, 0xd5, 0xff, 0xef,
  0x37, 0xcc, 0x24, 0xce, 0xf1, 0xff, 0x07, 0x80, 0x18, 0x01, 0x00, 0xd2,
  0x93, 0xff, 0x5f, 0x09, 0xdb, 0x6b, 0x44, 0x56, 0x97, 0xf1, 0xff, 0xef,
  0xdc, 0x28, 0xc3, 0x38, 0xf8, 0xff, 0x0f, 0x10, 0xe4, 0x00, 0x30, 0xad,
  0x05, 0xb8, 0xdc, 0x78, 0xb4, 0x84, 0x00, 0xf0, 0xdf, 0x95, 0x24, 0x6a,
  0xde, 0xaf, 0x37, 0x0a, 0xd5, 0xf0, 0xff, 0xe5, 0xff, 0x81, 0x44, 0xe8,
  0x38, 0xe7, 0x4b, 0xff, 0x07, 0x00, 0x10, 0x36, 0x04, 0xf0, 0xbc, 0x84,
  0x95, 0xe6, 0x98, 0x5b, 0x14, 0xed, 0xfb, 0xff, 0x92, 0xff, 0xe7, 0xd2,
  0x20, 0x88, 0x9e, 0x5a, 0xff, 0x0f, 0x00, 0x2d, 0x15, 0x00, 0xc0, 0xac,
  0xfb, 0xe3, 0xba, 0xca, 0x08, 0xf1, 0xa0, 0x71, 0xe2, 0xff, 0xff, 0x5a,
  0x9c, 0xbb, 0x74, 0x21, 0xf7, 0xfb, 0xff, 0x5b, 0xf4, 0xe3, 0xc6, 0xe0,
  0xff, 0x7f, 0x00, 0xc2, 0x11, 0x00, 0x80, 0x7f, 0x0e, 0xcb, 0xb9, 0x81,
  0x24, 0x7a, 0x17, 0x88, 0xcb, 0xff, 0x8f, 0xff, 0x3f, 0x29, 0x09, 0x82,
  0x61, 0x26, 0xfe, 0x03, 0x00, 0x84, 0x1b, 0xe6, 0x53, 0x00, 0x1f, 0x47,
  0x3b, 0x36, 0x33, 0x26, 0x1d, 0x5f, 0xb5, 0xfe, 0xbf, 0x3e, 0xe4, 0x11,
  0xc1, 0x86, 0xf8, 0xff, 0x3e, 0xd8, 0x8e, 0xd5, 0xef, 0xff, 0x07, 0x80,
  0x68, 0x05, 0x80, 0xb0, 0x6e, 0xfe, 0x5f, 0x61, 0x73, 0x0b, 0x41, 0x3c,
  0x72, 0xc7, 0xff, 0xdf, 0xa2, 0x79, 0x80, 0x22, 0x30, 0xff, 0xff, 0x0f,
  0x50, 0xaf, 0x00, 0x70, 0xf2, 0x7f, 0x33, 0x92, 0xb9, 0x88, 0xad, 0x7c,
  0x6f, 0x05, 0xf8, 0x2f, 0x4f, 0x82, 0xe5, 0xc3, 0xfa, 0x7f, 0x1f, 0x4b,
  0x11, 0x1a, 0xbf, 0xf8, 0xfe, 0xff, 0x1f, 0x00, 0xe0, 0x70, 0x48, 0xfb,
  0x06, 0x78, 0xb4, 0xcd, 0x8d, 0x64, 0x75, 0x16, 0x28, 0xc9, 0xef, 0xff,
  0x23, 0xc2, 0x7c, 0x4e, 0xbb, 0x29, 0xfd, 0xbf, 0xb3, 0x03, 0x13, 0x8a,
  0xea, 0x2b, 0xff, 0x0f, 0x00, 0xa0, 0x04, 0x00, 0x85, 0xb4, 0xff, 0x27,
  0xb6, 0x88, 0x64, 0xb4, 0x4c, 0x01, 0xff, 0x3f, 0x7c, 0x64, 0xd0, 0x4f,
  0x5d, 0x8d, 0xf8, 0xff, 0x0f, 0x20, 0x1a, 0x00, 0x50, 0xa6, 0x0f, 0xff,
  0x3a, 0xa3, 0x4d, 0x35, 0xa0, 0x20, 0xc0, 0x02, 0xfb, 0xff, 0x07, 0xae,
  0x52, 0x00, 0x75, 0xfe, 0xff, 0x77, 0x63, 0x84, 0xc9, 0x9c, 0xfc, 0xc5,
  0xfd, 0x03, 0x00, 0xa0, 0x1a, 0xc0, 0x03, 0xf0, 0xfa, 0x7f, 0x10, 0x78,
  0x44, 0x0d, 0x32, 0x51, 0xeb, 0xb6, 0xff, 0x5f, 0x16, 0x5c, 0x47, 0x1e,
  0x2a, 0x6a, 0xdc, 0xff, 0x0f, 0x00, 0x94, 0x0b, 0x00, 0xc3, 0xbb, 0xfe,
  0x7f, 0xe6, 0xa2, 0x54, 0x29, 0x90, 0xdc, 0xa3, 0xff, 0xff, 0xaf, 0xba,
  0x73, 0xf3, 0xff, 0xff, 0x00, 0x7e, 0x0f, 0x80, 0x14, 0xa9, 0x37, 0xfc,
  0x2b, 0xdd, 0x07, 0x1c, 0x6a, 0xe6, 0x22, 0x36, 0xff, 0x7f, 0x5d, 0x59,
  0xc6, 0x16, 0xa0, 0x7f, 0xf8, 0xff, 0x7d, 0x76, 0x1b, 0x05, 0x92, 0x7f,
  0x00, 0x00, 0x44, 0x34, 0xc0, 0x2f, 0x16, 0xed, 0x1e, 0x78, 0xa2, 0xe1,
  0x3b, 0xff, 0xdf, 0xf4, 0xff, 0x65, 0x28, 0x2e, 0x5a, 0x66, 0xff, 0x0f,
  0x00, 0xb5, 0xf6, 0xca, 0x4a, 0x00, 0xf8, 0xe9, 0xb8, 0xb2, 0xfc, 0x94,
  0x7c, 0xc1, 0xd0, 0x50, 0xba, 0x2b, 0xf4, 0xfe, 0x5f, 0x41, 0x47, 0x35,
  0x03, 0xaf, 0xa9, 0xe6, 0xff, 0x9f, 0x44, 0xba, 0x2c, 0xb3, 0x20, 0xf9,
  0xff, 0x07, 0x00, 0x90, 0x43, 0x43, 0xe1, 0xbf, 0x59, 0x65, 0xca, 0x01,
  0xbf, 0xf7, 0x34, 0xf9, 0xff, 0xf3, 0xff, 0xab, 0x0b, 0xd5, 0x14, 0x3d,
  0xe3, 0x1f, 0x00, 0x60, 0x96, 0xee, 0x2a, 0x03, 0xf8, 0xa1, 0x95, 0x02,
  0x48, 0x23, 0x65, 0xf1, 0xff, 0xc8, 0xe8, 0x5f, 0xa0, 0xef, 0x57, 0xa2,
  0xff, 0x77, 0xbd, 0xd1, 0x81, 0x76, 0xc8, 0xb7, 0xfe, 0x3f, 0x00, 0x10,
  0x12, 0x02, 0x00, 0x71, 0xfe, 0x7f, 0xbc, 0x41, 0x67, 0xc3, 0x9a, 0x6b,
  0x43, 0xf2, 0xff, 0x1f, 0xf1, 0x29, 0xa0, 0x3e, 0xaa, 0xfa, 0xff, 0x07,
  0x00, 0x00, 0x53, 0x0f, 0x44, 0x29, 0xfc, 0xcf, 0x8f, 0x60, 0x32, 0x01,
  0x8c, 0x11, 0xe0, 0xff, 0x4f, 0x1f, 0x86, 0x23, 0x75, 0xd2, 0xff, 0xff,
  0x07, 0xc0, 0x80, 0x17, 0x00, 0xf0, 0xae, 0x01, 0x23, 0x6c, 0x3c, 0xa3,
  0x09, 0x9c, 0xda, 0xff, 0xef, 0xf8, 0xff, 0x32, 0x05, 0xc8, 0xc8, 0x46,
  0xf5, 0xff, 0x00, 0x20, 0x1d, 0x07, 0x00, 0x62, 0x19, 0xb0, 0x25, 0x91,
  0x89, 0xf8, 0xd6, 0x55, 0xf3, 0xff, 0x25, 0x57, 0xd2, 0x90, 0x41, 0xfc,
  0xbf, 0x2b, 0x56, 0x22, 0x50, 0x4e, 0x85, 0xff, 0xff, 0x00, 0x75, 0x02,
  0x00, 0x73, 0xb5, 0xc3, 0xbf, 0xbf, 0x88, 0xf2, 0xf2, 0x54, 0xa8, 0x8d,
  0xfd, 0x7f, 0xdb, 0x67, 0x39, 0xe5, 0xff, 0x85, 0xcb, 0xeb, 0x59, 0x7c,
  0xff, 0xe1, 0x2e, 0x01, 0x60, 0xfc, 0xff, 0x01, 0x3e, 0x09, 0xb6, 0x68,
  0xcb, 0x44, 0xfb, 0x58, 0xff, 0x4f, 0x85, 0x73, 0x03, 0x35, 0x90, 0x07,
  0xff, 0xdf, 0x58, 0x32, 0xb5, 0xa5, 0x4d, 0xfe, 0x1f, 0x00, 0xa8, 0x4e,
  0x04, 0x80, 0x21, 0x31, 0xc4, 0x24, 0xd5, 0x85, 0xdb, 0x9e, 0xe3, 0x69,
  0xff, 0xbf, 0xe6, 0x67, 0x99, 0xa6, 0xbe, 0xfa, 0xff, 0x2f, 0x40, 0x4a,
  0x22, 0x4e, 0xfc, 0xff, 0x03, 0xf8, 0x27, 0x00, 0x98, 0x5a, 0x31, 0xf8,
  0x7f, 0x3b, 0xb8, 0x87, 0x36, 0x48, 0x15, 0xe5, 0xff, 0xc5, 0x55, 0xa9,
  0xb3, 0x6f, 0xff, 0xdf, 0xce, 0x98, 0xce, 0x1e, 0x48, 0x26, 0xfd, 0x07,
  0x00, 0x28, 0x8c, 0x64, 0x7c, 0x97, 0xce, 0xa1, 0x19, 0xa4, 0x52, 0xa6,
  0xf4, 0xff, 0xd9, 0xff, 0x3f, 0x00, 0xca, 0x5a, 0x74, 0x80, 0xff, 0x0f,
  0x00, 0x79, 0x06, 0x00, 0x49, 0xd5, 0x1f, 0x4a, 0xd4, 0x19, 0xbc, 0xc7,
  0x60, 0xb4, 0xf4, 0xff, 0xa9, 0x66, 0x38, 0xa0, 0x2d, 0x33, 0xfc, 0xff,
  0xd0, 0x64, 0x32, 0xe2, 0x4d, 0x37, 0xff, 0xff, 0x02, 0x00, 0x40, 0xa7,
  0x10, 0xfc, 0x3f, 0x50, 0x45, 0x51, 0x2a, 0x79, 0xef, 0xdc, 0xfa, 0xff,
  0xf3, 0xfe, 0x1f, 0x26, 0x19, 0xe2, 0xfb, 0xff, 0x00, 0x00, 0x8b, 0xbd,
  0x29, 0x00, 0x00, 0x70, 0x47, 0x7c, 0xab, 0x33, 0x42, 0x0f, 0x33, 0x00,
  0x40, 0x01, 0x80, 0x0f, 0x85, 0xff, 0xff, 0xff, 0x00, 0x00, 0x00, 0x00,
  0x00, 0x00, 0x00, 0x00, 0x00, 0x00, 0x00, 0x00, 0x00, 0x00, 0x06, 0x00,
  0x08, 0x00, 0x04, 0x00, 0x06, 0x00, 0x00, 0x00, 0x04, 0x00, 0x00, 0x00,
  0xd8, 0x09, 0x00, 0x00, 0x43, 0x4f, 0x50, 0x31, 0x01, 0x00, 0x10, 0x00,
  0x06, 0x10, 0x00, 0x00, 0x00, 0x00, 0x06, 0x10, 0x05, 0x00, 0x00, 0x00,
  0x05, 0x00, 0x00, 0x00, 0x05, 0x00, 0x00, 0x00, 0x02, 0x00, 0x6e, 0x02,
  0x30, 0x01, 0x00, 0x00, 0x30, 0x40, 0x00, 0x00, 0xc0, 0x05, 0x00, 0x00,
  0x31, 0x01, 0x01, 0x00, 0x31, 0x40, 0x00, 0x00, 0x70, 0x29, 0x00, 0x00,
  0x32, 0x40, 0x00, 0x00, 0xe0, 0x00, 0x00, 0x00, 0x10, 0x00, 0x00, 0x00,
  0x0f, 0x01, 0x01, 0x00, 0x00, 0x40, 0x00, 0x00, 0x00, 0x27, 0x00, 0x00,
  0x01, 0x40, 0x00, 0x00, 0x00, 0x00, 0x00, 0x00, 0x02, 0x40, 0x00, 0x00,
  0x00, 0x00, 0x00, 0x00, 0x03, 0x40, 0x00, 0x00, 0x00, 0x00, 0x00, 0x00,
  0x0b, 0x01, 0x2f, 0x00, 0x0c, 0x01, 0x2f, 0x00, 0x0a, 0x01, 0x0c, 0x00,
  0x04, 0x01, 0x00, 0x00, 0x06, 0x40, 0x00, 0x00, 0x01, 0x00, 0x00, 0x00,
  0x05, 0x40, 0x00, 0x00, 0x0d, 0x00, 0x00, 0x00, 0x04, 0x40, 0x00, 0x00,
  0x01, 0x00, 0x00, 0x00, 0x09, 0x01, 0x04, 0x00, 0x05, 0x01, 0x01, 0x00,
  0x07, 0x01, 0x00, 0x00, 0x00, 0x01, 0x01, 0x00, 0x01, 0x01, 0x01, 0x00,
  0x03, 0x01, 0x01, 0x00, 0x02, 0x01, 0x01, 0x00, 0x1f, 0x01, 0x01, 0x00,
  0x10, 0x40, 0x00, 0x00, 0x00, 0x00, 0x00, 0x00, 0x11, 0x40, 0x00, 0x00,
  0x00, 0x00, 0x00, 0x00, 0x12, 0x40, 0x00, 0x00, 0x00, 0x00, 0x00, 0x00,
  0x13, 0x40, 0x00, 0x00, 0x00, 0x00, 0x00, 0x00, 0x1b, 0x01, 0x2f, 0x00,
  0x1c, 0x01, 0x2f, 0x00, 0x1a, 0x01, 0x0c, 0x00, 0x12, 0x01, 0x2f, 0x00,
  0x11, 0x01, 0x0c, 0x00, 0x13, 0x01, 0x07, 0x00, 0x16, 0x40, 0x00, 0x00,
  0xd0, 0x00, 0x00, 0x00, 0x15, 0x40, 0x00, 0x00, 0xd0, 0x00, 0x00, 0x00,
  0x14, 0x40, 0x00, 0x00, 0x10, 0x00, 0x00, 0x00, 0x18, 0x01, 0x80, 0xff,
  0x14, 0x01, 0x41, 0x00, 0x21, 0x01, 0x02, 0x00, 0x20, 0x01, 0x02, 0x00,
  0x22, 0x01, 0x04, 0x00, 0x28, 0x01, 0x01, 0x00, 0x20, 0x40, 0x00, 0x00,
  0xc0, 0x29, 0x00, 0x00, 0x21, 0x40, 0x00, 0x00, 0x90, 0x00, 0x00, 0x00,
  0x29, 0x01, 0x01, 0x00, 0x22, 0x40, 0x00, 0x00, 0x70, 0x29, 0x00, 0x00,
  0x23, 0x40, 0x00, 0x00, 0x50, 0x00, 0x00, 0x00, 0x25, 0x01, 0x00, 0x00,
  0x26, 0x01, 0x80, 0xff, 0x27, 0x01, 0x7f, 0x00, 0x16, 0x01, 0x0f, 0x00,
  0x15, 0x01, 0x07, 0x00, 0x17, 0x01, 0x07, 0x00, 0x0d, 0x01, 0x06, 0x00,
  0x2d, 0x01, 0x08, 0x00, 0x24, 0x01, 0x00, 0x00, 0x2f, 0x01, 0x00, 0x00,
  0x11, 0x00, 0x00, 0x00, 0x02, 0x00, 0x00, 0x00, 0x00, 0x40, 0x00, 0x00,
  0x00, 0x00, 0x00, 0x00, 0x04, 0x01, 0x07, 0x00, 0x06, 0x40, 0x00, 0x00,
  0xd0, 0x00, 0x00, 0x00, 0x05, 0x40, 0x00, 0x00, 0xd0, 0x00, 0x00, 0x00,
  0x04, 0x40, 0x00, 0x00, 0x10, 0x00, 0x00, 0x00, 0x09, 0x01, 0x80, 0xff,
  0x05, 0x01, 0x41, 0x00, 0x00, 0x01, 0x00, 0x00, 0x01, 0x01, 0x00, 0x00,
  0x03, 0x01, 0x00, 0x00, 0x10, 0x40, 0x00, 0x00, 0x00, 0x27, 0x00, 0x00,
  0x1b, 0x01, 0x17, 0x00, 0x1c, 0x01, 0x17, 0x00, 0x1a, 0x01, 0x06, 0x00,
  0x12, 0x01, 0x17, 0x00, 0x11, 0x01, 0x06, 0x00, 0x16, 0x40, 0x00, 0x00,
  0x70, 0x00, 0x00, 0x00, 0x15, 0x40, 0x00, 0x00, 0x70, 0x00, 0x00, 0x00,
  0x21, 0x01, 0x01, 0x00, 0x20, 0x01, 0x01, 0x00, 0x22, 0x01, 0x03, 0x00,
  0x15, 0x01, 0x04, 0x00, 0x0d, 0x01, 0x08, 0x00, 0x2f, 0x01, 0x02, 0x00,
  0x05, 0x00, 0x00, 0x00, 0x30, 0x40, 0x00, 0x00, 0xa0, 0x06, 0x00, 0x00,
  0x31, 0x40, 0x00, 0x00, 0x80, 0x31, 0x00, 0x00, 0x32, 0x40, 0x00, 0x00,
  0xd0, 0x05, 0x00, 0x00, 0x10, 0x00, 0x00, 0x00, 0x00, 0x40, 0x00, 0x00,
  0x00, 0x27, 0x00, 0x00, 0x0b, 0x01, 0x17, 0x00, 0x0c, 0x01, 0x17, 0x00,
  0x0a, 0x01, 0x06, 0x00, 0x06, 0x40, 0x00, 0x00, 0x70, 0x00, 0x00, 0x00,
  0x05, 0x40, 0x00, 0x00, 0x70, 0x00, 0x00, 0x00, 0x00, 0x01, 0x01, 0x00,
  0x01, 0x01, 0x01, 0x00, 0x03, 0x01, 0x01, 0x00, 0x10, 0x40, 0x00, 0x00,
  0x00, 0x00, 0x00, 0x00, 0x13, 0x01, 0x0f, 0x00, 0x21, 0x01, 0x02, 0x00,
  0x20, 0x01, 0x02, 0x00, 0x22, 0x01, 0x04, 0x00, 0x20, 0x40, 0x00, 0x00,
  0x20, 0x32, 0x00, 0x00, 0x21, 0x40, 0x00, 0x00, 0x30, 0x05, 0x00, 0x00,
  0x22, 0x40, 0x00, 0x00, 0x80, 0x31, 0x00, 0x00, 0x23, 0x40, 0x00, 0x00,
  0xa0, 0x00, 0x00, 0x00, 0x16, 0x01, 0x0b, 0x00, 0x15, 0x01, 0x06, 0x00,
  0x17, 0x01, 0x0f, 0x00, 0x0d, 0x01, 0x04, 0x00, 0x2d, 0x01, 0x04, 0x00,
  0x2f, 0x01, 0x01, 0x00, 0x11, 0x00, 0x00, 0x00, 0x02, 0x00, 0x00, 0x00,
  0x00, 0x40, 0x00, 0x00, 0x00, 0x00, 0x00, 0x00, 0x04, 0x01, 0x0f, 0x00,
  0x00, 0x01, 0x00, 0x00, 0x01, 0x01, 0x00, 0x00, 0x03, 0x01, 0x00, 0x00,
  0x10, 0x40, 0x00, 0x00, 0x80, 0x0a, 0x00, 0x00, 0x1b, 0x01, 0x0b, 0x00,
  0x1c, 0x01, 0x0b, 0x00, 0x1a, 0x01, 0x03, 0x00, 0x12, 0x01, 0x0b, 0x00,
  0x11, 0x01, 0x03, 0x00, 0x16, 0x40, 0x00, 0x00, 0x01, 0x00, 0x00, 0x00,
  0x15, 0x40, 0x00, 0x00, 0x40, 0x00, 0x00, 0x00, 0x14, 0x01, 0x01, 0x00,
  0x21, 0x01, 0x01, 0x00, 0x20, 0x01, 0x01, 0x00, 0x22, 0x01, 0x03, 0x00,
  0x16, 0x01, 0x09, 0x00, 0x15, 0x01, 0x02, 0x00, 0x0d, 0x01, 0x06, 0x00,
  0x2d, 0x01, 0x0c, 0x00, 0x2f, 0x01, 0x00, 0x00, 0x05, 0x00, 0x00, 0x00,
  0x00, 0x40, 0x00, 0x00, 0x80, 0x0a, 0x00, 0x00, 0x0b, 0x01, 0x00, 0x00,
  0x0c, 0x01, 0x00, 0x00, 0x0a, 0x01, 0x00, 0x00, 0x04, 0x01, 0xff, 0x02,
  0x06, 0x40, 0x00, 0x00, 0x01, 0x00, 0x00, 0x00, 0x05, 0x40, 0x00, 0x00,
  0x00, 0x03, 0x00, 0x00, 0x04, 0x40, 0x00, 0x00, 0x00, 0x03, 0x00, 0x00,
  0x05, 0x01, 0x01, 0x00, 0x02, 0x01, 0x00, 0x00, 0x10, 0x40, 0x00, 0x00,
  0x00, 0x00, 0x00, 0x00, 0x1b, 0x01, 0x00, 0x00, 0x1c, 0x01, 0x00, 0x00,
  0x1a, 0x01, 0x00, 0x00, 0x12, 0x01, 0x00, 0x00, 0x11, 0x01, 0x00, 0x00,
  0x13, 0x01, 0x02, 0x00, 0x15, 0x40, 0x00, 0x00, 0x03, 0x00, 0x00, 0x00,
  0x14, 0x40, 0x00, 0x00, 0x03, 0x00, 0x00, 0x00, 0x18, 0x01, 0x00, 0x00,
  0x21, 0x01, 0x00, 0x00, 0x20, 0x01, 0x00, 0x00, 0x22, 0x01, 0x00, 0x00,
  0x28, 0x01, 0x00, 0x00, 0x20, 0x40, 0x00, 0x00, 0x90, 0x0c, 0x00, 0x00,
  0x21, 0x40, 0x00, 0x00, 0xf0, 0x0a, 0x00, 0x00, 0x29, 0x01, 0x00, 0x00,
  0x22, 0x40, 0x00, 0x00, 0x70, 0x0c, 0x00, 0x00, 0x23, 0x40, 0x00, 0x00,
  0x20, 0x00, 0x00, 0x00, 0x16, 0x01, 0x00, 0x00, 0x15, 0x01, 0x00, 0x00,
  0x17, 0x01, 0x07, 0x00, 0x0d, 0x01, 0x04, 0x00, 0x2f, 0x01, 0x03, 0x00,
  0x02, 0x00, 0x00, 0x00, 0x00, 0x40, 0x00, 0x00, 0x00, 0x00, 0x00, 0x00,
  0x0a, 0x01, 0x02, 0x00, 0x04, 0x01, 0x00, 0x00, 0x05, 0x40, 0x00, 0x00,
  0x03, 0x00, 0x00, 0x00, 0x04, 0x40, 0x00, 0x00, 0x01, 0x00, 0x00, 0x00,
  0x09, 0x01, 0x00, 0x00, 0x10, 0x40, 0x00, 0x00, 0x50, 0x00, 0x00, 0x00,
  0x13, 0x01, 0x00, 0x00, 0x16, 0x40, 0x00, 0x00, 0x10, 0x00, 0x00, 0x00,
  0x15, 0x40, 0x00, 0x00, 0x10, 0x00, 0x00, 0x00, 0x14, 0x40, 0x00, 0x00,
  0x10, 0x00, 0x00, 0x00, 0x14, 0x01, 0x41, 0x00, 0x20, 0x01, 0x02, 0x00,
  0x2f, 0x01, 0x00, 0x00, 0x05, 0x00, 0x00, 0x00, 0x30, 0x40, 0x00, 0x00,
  0x20, 0x01, 0x00, 0x00, 0x31, 0x01, 0x03, 0x01, 0x31, 0x40, 0x00, 0x00,
  0x00, 0x38, 0x00, 0x00, 0x32, 0x40, 0x00, 0x00, 0x00, 0x04, 0x00, 0x00,
  0x12, 0x00, 0x00, 0x00, 0x10, 0x00, 0x00, 0x00, 0x25, 0x40, 0x00, 0x00,
  0x01, 0x00, 0x00, 0x00, 0x26, 0x40, 0x00, 0x00, 0x01, 0x00, 0x00, 0x00,
  0x24, 0x40, 0x00, 0x00, 0x01, 0x00, 0x00, 0x00, 0x0a, 0x01, 0x00, 0x00,
  0x04, 0x01, 0x02, 0x00, 0x04, 0x40, 0x00, 0x00, 0x03, 0x00, 0x00, 0x00,
  0x10, 0x40, 0x00, 0x00, 0x10, 0x00, 0x00, 0x00, 0x13, 0x01, 0x02, 0x00,
  0x16, 0x40, 0x00, 0x00, 0x40, 0x00, 0x00, 0x00, 0x15, 0x40, 0x00, 0x00,
  0x40, 0x00, 0x00, 0x00, 0x14, 0x40, 0x00, 0x00, 0x40, 0x00, 0x00, 0x00,
  0x18, 0x01, 0x7f, 0x00, 0x14, 0x01, 0x45, 0x01, 0x25, 0x01, 0x10, 0x30,
  0x0d, 0x01, 0x0e, 0x00, 0x2d, 0x01, 0x0e, 0x00, 0x8d, 0x01, 0x04, 0x00,
  0x8f, 0x01, 0x01, 0x00, 0x80, 0x40, 0x00, 0x00, 0x50, 0x00, 0x00, 0x00,
  0x81, 0x40, 0x00, 0x00, 0x00, 0x00, 0x00, 0x00, 0x82, 0x40, 0x00, 0x00,
  0x00, 0x00, 0x00, 0x00, 0x83, 0x40, 0x00, 0x00, 0x00, 0x00, 0x00, 0x00,
  0x8b, 0x01, 0x00, 0x00, 0x8c, 0x01, 0x00, 0x00, 0x8a, 0x01, 0x00, 0x00,
  0x86, 0x40, 0x00, 0x00, 0x10, 0x00, 0x00, 0x00, 0x85, 0x40, 0x00, 0x00,
  0x10, 0x00, 0x00, 0x00, 0x84, 0x40, 0x00, 0x00, 0x10, 0x00, 0x00, 0x00,
  0x89, 0x01, 0x00, 0x00, 0x85, 0x01, 0x41, 0x00, 0x80, 0x01, 0x04, 0x00,
  0x11, 0x00, 0x00, 0x00, 0x06, 0x00, 0x02, 0x00, 0x00, 0x40, 0x00, 0x00,
  0x10, 0x00, 0x00, 0x00, 0x06, 0x40, 0x00, 0x00, 0x40, 0x00, 0x00, 0x00,
  0x05, 0x40, 0x00, 0x00, 0x40, 0x00, 0x00, 0x00, 0x04, 0x40, 0x00, 0x00,
  0x40, 0x00, 0x00, 0x00, 0x05, 0x01, 0x49, 0x00, 0x10, 0x40, 0x00, 0x00,
  0x00, 0x00, 0x00, 0x00, 0x16, 0x40, 0x00, 0x00, 0x04, 0x00, 0x00, 0x00,
  0x15, 0x40, 0x00, 0x00, 0x0c, 0x00, 0x00, 0x00, 0x14, 0x40, 0x00, 0x00,
  0x0c, 0x00, 0x00, 0x00, 0x18, 0x01, 0x00, 0x00, 0x14, 0x01, 0x05, 0x80,
  0x25, 0x01, 0x00, 0x00, 0x0d, 0x01, 0x10, 0x00, 0x2d, 0x01, 0x10, 0x00,
  0x8d, 0x01, 0x06, 0x00, 0x8f, 0x01, 0x00, 0x00, 0x80, 0x40, 0x00, 0x00,
  0x20, 0x05, 0x00, 0x00, 0x86, 0x40, 0x00, 0x00, 0x04, 0x00, 0x00, 0x00,
  0x85, 0x40, 0x00, 0x00, 0x04, 0x00, 0x00, 0x00, 0x84, 0x40, 0x00, 0x00,
  0x04, 0x00, 0x00, 0x00, 0x85, 0x01, 0x09, 0x00, 0x06, 0x00, 0x08, 0x00,
  0x00, 0x40, 0x00, 0x00, 0x00, 0x00, 0x00, 0x00, 0x06, 0x40, 0x00, 0x00,
  0x04, 0x00, 0x00, 0x00, 0x05, 0x40, 0x00, 0x00, 0x0c, 0x00, 0x00, 0x00,
  0x04, 0x40, 0x00, 0x00, 0x0c, 0x00, 0x00, 0x00, 0x05, 0x01, 0x09, 0x00,
  0x10, 0x40, 0x00, 0x00, 0x60, 0x00, 0x00, 0x00, 0x13, 0x01, 0x00, 0x00,
  0x16, 0x40, 0x00, 0x00, 0x40, 0x00, 0x00, 0x00, 0x15, 0x40, 0x00, 0x00,
  0x40, 0x00, 0x00, 0x00, 0x14, 0x40, 0x00, 0x00, 0x40, 0x00, 0x00, 0x00,
  0x14, 0x01, 0x45, 0x01, 0x20, 0x01, 0x00, 0x00, 0x0d, 0x01, 0x06, 0x00,
  0x2d, 0x01, 0x0c, 0x00, 0x05, 0x00, 0x02, 0x00, 0x00, 0x40, 0x00, 0x00,
  0x60, 0x00, 0x00, 0x00, 0x04, 0x01, 0x00, 0x00, 0x06, 0x40, 0x00, 0x00,
  0x40, 0x00, 0x00, 0x00, 0x05, 0x40, 0x00, 0x00, 0x40, 0x00, 0x00, 0x00,
  0x04, 0x40, 0x00, 0x00, 0x40, 0x00, 0x00, 0x00, 0x05, 0x01, 0x49, 0x00,
  0x10, 0x40, 0x00, 0x00, 0xa0, 0x00, 0x00, 0x00, 0x14, 0x01, 0x45, 0x00,
  0x0d, 0x01, 0x10, 0x00, 0x2d, 0x01, 0x10, 0x00, 0x06, 0x00, 0x07, 0x00,
  0x00, 0x40, 0x00, 0x00, 0xa0, 0x00, 0x00, 0x00, 0x10, 0x40, 0x00, 0x00,
  0x00, 0x00, 0x00, 0x00, 0x16, 0x40, 0x00, 0x00, 0x04, 0x00, 0x00, 0x00,
  0x15, 0x40, 0x00, 0x00, 0x04, 0x00, 0x00, 0x00, 0x14, 0x40, 0x00, 0x00,
  0x04, 0x00, 0x00, 0x00, 0x14, 0x01, 0x05, 0x01, 0x80, 0x40, 0x00, 0x00,
  0x30, 0x05, 0x00, 0x00, 0x80, 0x01, 0x40, 0x00, 0x06, 0x00, 0x02, 0x00,
  0x10, 0x40, 0x00, 0x00, 0x50, 0x00, 0x00, 0x00, 0x80, 0x40, 0x00, 0x00,
  0x40, 0x05, 0x00, 0x00, 0x80, 0x01, 0x00, 0x00, 0x2f, 0x01, 0x03, 0x00,
  0x06, 0x00, 0x02, 0x00, 0x00, 0x40, 0x00, 0x00, 0x60, 0x00, 0x00, 0x00,
  0x14, 0x01, 0x05, 0x00, 0x8f, 0x01, 0x01, 0x00, 0x80, 0x40, 0x00, 0x00,
  0x50, 0x00, 0x00, 0x00, 0x2f, 0x01, 0x00, 0x00, 0x06, 0x00, 0x09, 0x00,
  0x00, 0x40, 0x00, 0x00, 0x50, 0x00, 0x00, 0x00, 0x06, 0x40, 0x00, 0x00,
  0x04, 0x00, 0x00, 0x00, 0x05, 0x40, 0x00, 0x00, 0x04, 0x00, 0x00, 0x00,
  0x04, 0x40, 0x00, 0x00, 0x04, 0x00, 0x00, 0x00, 0x05, 0x01, 0x09, 0x00,
  0x14, 0x01, 0x05, 0x01, 0x8f, 0x01, 0x00, 0x00, 0x80, 0x40, 0x00, 0x00,
  0x50, 0x05, 0x00, 0x00, 0x06, 0x00, 0x02, 0x00, 0x14, 0x01, 0x05, 0x00,
  0x80, 0x40, 0x00, 0x00, 0x40, 0x05, 0x00, 0x00, 0x06, 0x00, 0x09, 0x00,
  0x24, 0x40, 0x01, 0x00, 0x01, 0x00, 0x00, 0x00, 0x14, 0x01, 0x05, 0x01,
  0x80, 0x40, 0x00, 0x00, 0x60, 0x05, 0x00, 0x00, 0x06, 0x00, 0x01, 0x00,
  0x24, 0x40, 0x1f, 0x00, 0x00, 0x00, 0x00, 0x40, 0x10, 0x40, 0x00, 0x00,
  0x70, 0x00, 0x00, 0x00, 0x80, 0x40, 0x00, 0x00, 0x70, 0x05, 0x00, 0x00,
  0x06, 0x00, 0x00, 0x00, 0x24, 0x40, 0x00, 0x00, 0x01, 0x00, 0x00, 0x00,
  0x00, 0x40, 0x00, 0x00, 0x70, 0x00, 0x00, 0x00, 0x80, 0x40, 0x00, 0x00,
  0x80, 0x05, 0x00, 0x00, 0x06, 0x00, 0x01, 0x00, 0x24, 0x40, 0x1f, 0x00,
  0x00, 0x00, 0x00, 0x40, 0x10, 0x40, 0x00, 0x00, 0x60, 0x00, 0x00, 0x00,
  0x8f, 0x01, 0x01, 0x00, 0x80, 0x40, 0x00, 0x00, 0x50, 0x00, 0x00, 0x00,
  0x06, 0x00, 0x00, 0x00, 0x24, 0x40, 0x00, 0x00, 0x01, 0x00, 0x00, 0x00,
  0x00, 0x40, 0x00, 0x00, 0x60, 0x00, 0x00, 0x00, 0x8f, 0x01, 0x00, 0x00,
  0x80, 0x40, 0x00, 0x00, 0x90, 0x05, 0x00, 0x00, 0x80, 0x01, 0x40, 0x00,
  0x06, 0x00, 0x02, 0x00, 0x24, 0x40, 0x1f, 0x00, 0x00, 0x00, 0x00, 0x40,
  0x00, 0x40, 0x00, 0x00, 0x70, 0x00, 0x00, 0x00, 0x8f, 0x01, 0x01, 0x00,
  0x80, 0x40, 0x00, 0x00, 0x60, 0x00, 0x00, 0x00, 0x80, 0x01, 0x00, 0x00,
  0x06, 0x00, 0x00, 0x00, 0x24, 0x40, 0x00, 0x00, 0x01, 0x00, 0x00, 0x00,
  0x00, 0x40, 0x00, 0x00, 0x60, 0x00, 0x00, 0x00, 0x8f, 0x01, 0x00, 0x00,
  0x80, 0x40, 0x00, 0x00, 0xa0, 0x05, 0x00, 0x00, 0x06, 0x00, 0x00, 0x00,
  0x00, 0x40, 0x00, 0x00, 0x70, 0x00, 0x00, 0x00, 0x8f, 0x01, 0x01, 0x00,
  0x80, 0x40, 0x00, 0x00, 0x60, 0x00, 0x00, 0x00, 0x06, 0x00, 0x01, 0x00,
  0x24, 0x40, 0x1f, 0x00, 0x00, 0x00, 0x00, 0x40, 0x00, 0x40, 0x00, 0x00,
  0x60, 0x00, 0x00, 0x00, 0x10, 0x40, 0x00, 0x00, 0x70, 0x00, 0x00, 0x00,
  0x80, 0x40, 0x00, 0x00, 0x50, 0x00, 0x00, 0x00, 0x06, 0x00, 0x00, 0x00,
  0x24, 0x40, 0x00, 0x00, 0x01, 0x00, 0x00, 0x00, 0x00, 0x40, 0x00, 0x00,
  0x70, 0x00, 0x00, 0x00, 0x8f, 0x01, 0x00, 0x00, 0x80, 0x40, 0x00, 0x00,
  0x90, 0x05, 0x00, 0x00, 0x80, 0x01, 0x40, 0x00, 0x06, 0x00, 0x02, 0x00,
  0x24, 0x40, 0x1f, 0x00, 0x00, 0x00, 0x00, 0x40, 0x00, 0x40, 0x00, 0x00,
  0x60, 0x00, 0x00, 0x00, 0x8f, 0x01, 0x01, 0x00, 0x80, 0x40, 0x00, 0x00,
  0x70, 0x00, 0x00, 0x00, 0x80, 0x01, 0x00, 0x00, 0x06, 0x00, 0x00, 0x00,
  0x24, 0x40, 0x00, 0x00, 0x01, 0x00, 0x00, 0x00, 0x00, 0x40, 0x00, 0x00,
  0x70, 0x00, 0x00, 0x00, 0x8f, 0x01, 0x00, 0x00, 0x80, 0x40, 0x00, 0x00,
  0xa0, 0x05, 0x00, 0x00, 0x06, 0x00, 0x00, 0x00, 0x00, 0x40, 0x00, 0x00,
  0x60, 0x00, 0x00, 0x00, 0x8f, 0x01, 0x01, 0x00, 0x80, 0x40, 0x00, 0x00,
  0x70, 0x00, 0x00, 0x00, 0x06, 0x00, 0x01, 0x00, 0x24, 0x40, 0x1f, 0x00,
  0x00, 0x00, 0x00, 0x40, 0x00, 0x40, 0x00, 0x00, 0x70, 0x00, 0x00, 0x00,
  0x10, 0x40, 0x00, 0x00, 0x60, 0x00, 0x00, 0x00, 0x80, 0x40, 0x00, 0x00,
  0x50, 0x00, 0x00, 0x00, 0x06, 0x00, 0x00, 0x00, 0x24, 0x40, 0x00, 0x00,
  0x01, 0x00, 0x00, 0x00, 0x00, 0x40, 0x00, 0x00, 0x60, 0x00, 0x00, 0x00,
  0x8f, 0x01, 0x00, 0x00, 0x80, 0x40, 0x00, 0x00, 0x90, 0x05, 0x00, 0x00,
  0x80, 0x01, 0x40, 0x00, 0x06, 0x00, 0x02, 0x00, 0x24, 0x40, 0x1f, 0x00,
  0x00, 0x00, 0x00, 0x40, 0x00, 0x40, 0x00, 0x00, 0x70, 0x00, 0x00, 0x00,
  0x8f, 0x01, 0x01, 0x00, 0x80, 0x40, 0x00, 0x00, 0x60, 0x00, 0x00, 0x00,
  0x80, 0x01, 0x00, 0x00, 0x06, 0x00, 0x00, 0x00, 0x24, 0x40, 0x00, 0x00,
  0x01, 0x00, 0x00, 0x00, 0x00, 0x40, 0x00, 0x00, 0x60, 0x00, 0x00, 0x00,
  0x8f, 0x01, 0x00, 0x00, 0x80, 0x40, 0x00, 0x00, 0xa0, 0x05, 0x00, 0x00,
  0x06, 0x00, 0x00, 0x00, 0x00, 0x40, 0x00, 0x00, 0x70, 0x00, 0x00, 0x00,
  0x8f, 0x01, 0x01, 0x00, 0x80, 0x40, 0x00, 0x00, 0x60, 0x00, 0x00, 0x00,
  0x06, 0x00, 0x01, 0x00, 0x00, 0x40, 0x00, 0x00, 0x60, 0x00, 0x00, 0x00,
  0x8f, 0x01, 0x00, 0x00, 0x80, 0x40, 0x00, 0x00, 0xb0, 0x05, 0x00, 0x00,
  0x06, 0x00, 0x00, 0x00, 0x24, 0x40, 0x1f, 0x00, 0x00, 0x00, 0x00, 0x40,
  0x00, 0x40, 0x00, 0x00, 0x10, 0x00, 0x00, 0x00, 0x04, 0x01, 0x02, 0x00,
  0x06, 0x40, 0x00, 0x00, 0x40, 0x00, 0x00, 0x00, 0x05, 0x40, 0x00, 0x00,
  0x40, 0x00, 0x00, 0x00, 0x04, 0x40, 0x00, 0x00, 0x40, 0x00, 0x00, 0x00,
  0x05, 0x01, 0x49, 0x00, 0x10, 0x40, 0x00, 0x00, 0x70, 0x00, 0x00, 0x00,
  0x13, 0x01, 0x02, 0x00, 0x16, 0x40, 0x00, 0x00, 0x40, 0x00, 0x00, 0x00,
  0x15, 0x40, 0x00, 0x00, 0x40, 0x00, 0x00, 0x00, 0x14, 0x40, 0x00, 0x00,
  0x40, 0x00, 0x00, 0x00, 0x14, 0x01, 0x45, 0x01, 0x8f, 0x01, 0x01, 0x00,
  0x80, 0x40, 0x00, 0x00, 0x60, 0x00, 0x00, 0x00, 0x80, 0x01, 0x04, 0x00,
  0x06, 0x00, 0x00, 0x00, 0x24, 0x40, 0x00, 0x00, 0x01, 0x00, 0x00, 0x00,
  0x00, 0x40, 0x00, 0x00, 0x70, 0x00, 0x00, 0x00, 0x10, 0x40, 0x00, 0x00,
  0x10, 0x00, 0x00, 0x00, 0x16, 0x40, 0x00, 0x00, 0x01, 0x00, 0x00, 0x00,
  0x15, 0x40, 0x00, 0x00, 0x03, 0x00, 0x00, 0x00, 0x14, 0x40, 0x00, 0x00,
  0x03, 0x00, 0x00, 0x00, 0x18, 0x01, 0x80, 0xff, 0x14, 0x01, 0x01, 0x80,
  0x80, 0x40, 0x00, 0x00, 0x00, 0x00, 0x00, 0x00, 0x06, 0x00, 0x08, 0x00,
  0x00, 0x00, 0xff, 0xff, 0x00, 0x00, 0x00, 0x00, 0x00, 0x00, 0x00, 0x00,
  0x04, 0x00, 0x04, 0x00, 0x04, 0x00, 0x00, 0x00, 0x01, 0x00, 0x00, 0x00,
  0x14, 0x00, 0x00, 0x00, 0x00, 0x00, 0x0e, 0x00, 0x18, 0x00, 0x14, 0x00,
  0x10, 0x00, 0x0c, 0x00, 0x08, 0x00, 0x04, 0x00, 0x0e, 0x00, 0x00, 0x00,
  0x74, 0x02, 0x00, 0x00, 0x10, 0x00, 0x00, 0x00, 0x74, 0x00, 0x00, 0x00,
  0x78, 0x00, 0x00, 0x00, 0x7c, 0x00, 0x00, 0x00, 0x01, 0x00, 0x00, 0x00,
  0x1c, 0x00, 0x00, 0x00, 0x00, 0x00, 0x16, 0x00, 0x18, 0x00, 0x00, 0x00,
  0x14, 0x00, 0x10, 0x00, 0x00, 0x00, 0x00, 0x00, 0x08, 0x00, 0x00, 0x00,
  0x04, 0x00, 0x0c, 0x00, 0x16, 0x00, 0x00, 0x00, 0x14, 0x00, 0x00, 0x00,
  0x14, 0x00, 0x00, 0x00, 0x18, 0x00, 0x00, 0x00, 0x18, 0x00, 0x00, 0x00,
  0x1c, 0x00, 0x00, 0x00, 0x00, 0x00, 0x00, 0x00, 0x03, 0x00, 0x00, 0x00,
  0x01, 0x04, 0x01, 0x00, 0x00, 0x00, 0x00, 0x00, 0x01, 0x00, 0x00, 0x00,
  0x00, 0x00, 0x00, 0x00, 0x05, 0x00, 0x00, 0x00, 0x01, 0x00, 0x00, 0x00,
  0x02, 0x00, 0x00, 0x00, 0x03, 0x00, 0x00, 0x00, 0x04, 0x00, 0x00, 0x00,
  0x05, 0x00, 0x00, 0x00, 0x01, 0x00, 0x00, 0x00, 0x00, 0x00, 0x00, 0x00,
  0x01, 0x00, 0x00, 0x00, 0x05, 0x00, 0x00, 0x00, 0x06, 0x00, 0x00, 0x00,
  0x74, 0x01, 0x00, 0x00, 0x24, 0x01, 0x00, 0x00, 0xe0, 0x00, 0x00, 0x00,
  0xa8, 0x00, 0x00, 0x00, 0x60, 0x00, 0x00, 0x00, 0x04, 0x00, 0x00, 0x00,
  0xb2, 0xfe, 0xff, 0xff, 0x10, 0x00, 0x00, 0x00, 0x2c, 0x00, 0x00, 0x00,
  0x00, 0x00, 0x00, 0x09, 0x3c, 0x00, 0x00, 0x00, 0xa4, 0xfe, 0xff, 0xff,
  0x08, 0x00, 0x00, 0x00, 0x10, 0x00, 0x00, 0x00, 0x01, 0x00, 0x00, 0x00,
  0x04, 0x00, 0x00, 0x00, 0x00, 0x00, 0x00, 0x00, 0x01, 0x00, 0x00, 0x00,
  0xb0, 0xc6, 0x1f, 0x3d, 0x13, 0x00, 0x00, 0x00, 0x73, 0x65, 0x72, 0x76,
  0x69, 0x6e, 0x67, 0x5f, 0x64, 0x65, 0x66, 0x61, 0x75, 0x6c, 0x74, 0x5f,
  0x78, 0x3a, 0x30, 0x00, 0x02, 0x00, 0x00, 0x00, 0x01, 0x00, 0x00, 0x00,
  0x70, 0x02, 0x00, 0x00, 0xc8, 0xff, 0xff, 0xff, 0x0c, 0x00, 0x00, 0x00,
  0x00, 0x00, 0x00, 0x03, 0x24, 0x00, 0x00, 0x00, 0x19, 0x00, 0x00, 0x00,
  0x6d, 0x61, 0x69, 0x6e, 0x5f, 0x73, 0x70, 0x6c, 0x69, 0x74, 0x5f, 0x31,
  0x5f, 0x73, 0x63, 0x72, 0x61, 0x74, 0x63, 0x68, 0x5f, 0x66, 0x61, 0x73,
  0x74, 0x00, 0x00, 0x00, 0x01, 0x00, 0x00, 0x00, 0x50, 0x37, 0x00, 0x00,
  0x0c, 0x00, 0x10, 0x00, 0x0c, 0x00, 0x0b, 0x00, 0x00, 0x00, 0x04, 0x00,
  0x0c, 0x00, 0x00, 0x00, 0x0c, 0x00, 0x00, 0x00, 0x00, 0x00, 0x00, 0x03,
  0x20, 0x00, 0x00, 0x00, 0x14, 0x00, 0x00, 0x00, 0x6d, 0x61, 0x69, 0x6e,
  0x5f, 0x73, 0x70, 0x6c, 0x69, 0x74, 0x5f, 0x31, 0x5f, 0x73, 0x63, 0x72,
  0x61, 0x74, 0x63, 0x68, 0x00, 0x00, 0x00, 0x00, 0x01, 0x00, 0x00, 0x00,
  0x50, 0x37, 0x00, 0x00, 0xcc, 0xff, 0xff, 0xff, 0x10, 0x00, 0x00, 0x00,
  0x02, 0x00, 0x00, 0x00, 0x00, 0x00, 0x00, 0x03, 0x1c, 0x00, 0x00, 0x00,
  0x12, 0x00, 0x00, 0x00, 0x6d, 0x61, 0x69, 0x6e, 0x5f, 0x73, 0x70, 0x6c,
  0x69, 0x74, 0x5f, 0x31, 0x5f, 0x66, 0x6c, 0x61, 0x73, 0x68, 0x00, 0x00,
  0x01, 0x00, 0x00, 0x00, 0x80, 0x17, 0x00, 0x00, 0x0c, 0x00, 0x14, 0x00,
  0x10, 0x00, 0x0f, 0x00, 0x08, 0x00, 0x04, 0x00, 0x0c, 0x00, 0x00, 0x00,
  0x10, 0x00, 0x00, 0x00, 0x01, 0x00, 0x00, 0x00, 0x00, 0x00, 0x00, 0x03,
  0x24, 0x00, 0x00, 0x00, 0x1b, 0x00, 0x00, 0x00, 0x6d, 0x61, 0x69, 0x6e,
  0x5f, 0x73, 0x70, 0x6c, 0x69, 0x74, 0x5f, 0x31, 0x5f, 0x63, 0x6f, 0x6d,
  0x6d, 0x61, 0x6e, 0x64, 0x5f, 0x73, 0x74, 0x72, 0x65, 0x61, 0x6d, 0x00,
  0x01, 0x00, 0x00, 0x00, 0xd8, 0x09, 0x00, 0x00, 0x00, 0x00, 0x0e, 0x00,
  0x14, 0x00, 0x10, 0x00, 0x0f, 0x00, 0x00, 0x00, 0x08, 0x00, 0x04, 0x00,
  0x0e, 0x00, 0x00, 0x00, 0x1c, 0x00, 0x00, 0x00, 0x3c, 0x00, 0x00, 0x00,
  0x00, 0x00, 0x00, 0x09, 0x54, 0x00, 0x00, 0x00, 0x0c, 0x00, 0x0c, 0x00,
  0x00, 0x00, 0x00, 0x00, 0x08, 0x00, 0x04, 0x00, 0x0c, 0x00, 0x00, 0x00,
  0x08, 0x00, 0x00, 0x00, 0x14, 0x00, 0x00, 0x00, 0x01, 0x00, 0x00, 0x00,
  0x80, 0xff, 0xff, 0xff, 0xff, 0xff, 0xff, 0xff, 0x00, 0x00, 0x00, 0x00,
  0x01, 0x00, 0x00, 0x00, 0x00, 0x00, 0x80, 0x3b, 0x19, 0x00, 0x00, 0x00,
  0x53, 0x74, 0x61, 0x74, 0x65, 0x66, 0x75, 0x6c, 0x50, 0x61, 0x72, 0x74,
  0x69, 0x74, 0x69, 0x6f, 0x6e, 0x65, 0x64, 0x43, 0x61, 0x6c, 0x6c, 0x3a,
  0x30, 0x00, 0x00, 0x00, 0x02, 0x00, 0x00, 0x00, 0x01, 0x00, 0x00, 0x00,
  0x03, 0x00, 0x00, 0x00, 0x04, 0x00, 0x00, 0x00, 0x6d, 0x61, 0x69, 0x6e,
  0x00, 0x00, 0x00, 0x00, 0x15, 0x00, 0x00, 0x00, 0x56, 0x65, 0x6c, 0x61,
  0x20, 0x33, 0x2e, 0x31, 0x32, 0x2e, 0x30, 0x20, 0x4f, 0x70, 0x74, 0x69,
  0x6d, 0x69, 0x73, 0x65, 0x64, 0x00, 0x00, 0x00, 0x01, 0x00, 0x00, 0x00,
  0x10, 0x00, 0x00, 0x00, 0x0c, 0x00, 0x10, 0x00, 0x0f, 0x00, 0x04, 0x00,
  0x00, 0x00, 0x08, 0x00, 0x0c, 0x00, 0x00, 0x00, 0x0c, 0x00, 0x00, 0x00,
  0x20, 0x00, 0x00, 0x00, 0x00, 0x00, 0x00, 0x20, 0x07, 0x00, 0x00, 0x00,
  0x65, 0x74, 0x68, 0x6f, 0x73, 0x2d, 0x75, 0x00
};
unsigned int tflite_learn_5_len = 9824;
#endif // _EI_CLASSIFIER_TFLITE_LEARN_5_H_
